{
  "version": "1.0",
  "truncation": {
    "direction": "Right",
    "max_length": 256,
    "strategy": "LongestFirst",
    "stride": 0
  },
  "padding": {
    "strategy": "BatchLongest",
    "direction": "Right",
    "pad_to_multiple_of": null,
    "pad_id": 1,
    "pad_type_id": 0,
    "pad_token": "[PAD]"
  },
  "added_tokens": [
    {
      "id": 0,
      "content": "[UNK]",
      "single_word": false,
      "lstrip": false,
      "rstrip": false,
      "normalized": false,
      "special": true
    },
    {
      "id": 1,
      "content": "[PAD]",
      "single_word": false,
      "lstrip": false,
      "rstrip": false,
      "normalized": false,
      "special": true
    }
  ],
  "normalizer": null,
  "pre_tokenizer": {
    "type": "Whitespace"
  },
  "post_processor": null,
  "decoder": null,
  "model": {
    "type": "BPE",
    "dropout": null,
    "unk_token": "[UNK]",
    "continuing_subword_prefix": null,
    "end_of_word_suffix": null,
    "fuse_unk": false,
    "byte_fallback": false,
    "ignore_merges": false,
    "vocab": {
      "[UNK]": 0,
      "[PAD]": 1,
      "!": 2,
      "\"": 3,
      "#": 4,
      "$": 5,
      "%": 6,
      "&": 7,
      "'": 8,
      "(": 9,
      ")": 10,
      "*": 11,
      "+": 12,
      ",": 13,
      "-": 14,
      ".": 15,
      "/": 16,
      "0": 17,
      "1": 18,
      "2": 19,
      "3": 20,
      "4": 21,
      "5": 22,
      "6": 23,
      "7": 24,
      "8": 25,
      "9": 26,
      ":": 27,
      ";": 28,
      "<": 29,
      "=": 30,
      ">": 31,
      "?": 32,
      "@": 33,
      "A": 34,
      "B": 35,
      "C": 36,
      "D": 37,
      "E": 38,
      "F": 39,
      "G": 40,
      "H": 41,
      "I": 42,
      "J": 43,
      "K": 44,
      "L": 45,
      "M": 46,
      "N": 47,
      "O": 48,
      "P": 49,
      "Q": 50,
      "R": 51,
      "S": 52,
      "T": 53,
      "U": 54,
      "V": 55,
      "W": 56,
      "X": 57,
      "Y": 58,
      "Z": 59,
      "[": 60,
      "]": 61,
      "^": 62,
      "_": 63,
      "`": 64,
      "a": 65,
      "b": 66,
      "c": 67,
      "d": 68,
      "e": 69,
      "f": 70,
      "g": 71,
      "h": 72,
      "i": 73,
      "j": 74,
      "k": 75,
      "l": 76,
      "m": 77,
      "n": 78,
      "o": 79,
      "p": 80,
      "q": 81,
      "r": 82,
      "s": 83,
      "t": 84,
      "u": 85,
      "v": 86,
      "w": 87,
      "x": 88,
      "y": 89,
      "z": 90,
      "{": 91,
      "|": 92,
      "}": 93,
      "he": 94,
      "an": 95,
      "in": 96,
      "ou": 97,
      "on": 98,
      "re": 99,
      "the": 100,
      "er": 101,
      "at": 102,
      "th": 103,
      "and": 104,
      "ing": 105,
      "you": 106,
      "to": 107,
      "ll": 108,
      "is": 109,
      "oe": 110,
      "be": 111,
      "me": 112,
      "it": 113,
      "ac": 114,
      "ic": 115,
      "st": 116,
      "en": 117,
      "no": 118,
      "ss": 119,
      "ar": 120,
      "or": 121,
      "se": 122,
      "ay": 123,
      "hel": 124,
      "oss": 125,
      "hand": 126,
      "Rac": 127,
      "le": 128,
      "Ross": 129,
      "Rachel": 130,
      "ve": 131,
      "ica": 132,
      "Mon": 133,
      "Joe": 134,
      "ler": 135,
      "Joey": 136,
      "Chand": 137,
      "Chandler": 138,
      "Monica": 139,
      "oo": 140,
      "ke": 141,
      "hat": 142,
      "ha": 143,
      "..": 144,
      "hoe": 145,
      "we": 146,
      "Phoe": 147,
      "Phoebe": 148,
      "that": 149,
      "gh": 150,
      "of": 151,
      "now": 152,
      "do": 153,
      "all": 154,
      "as": 155,
      "al": 156,
      "ri": 157,
      "Oh": 158,
      ".)": 159,
      "ut": 160,
      "so": 161,
      "li": 162,
      "id": 163,
      "know": 164,
      "ght": 165,
      "out": 166,
      "ho": 167,
      "ge": 168,
      "go": 169,
      "He": 170,
      "ld": 171,
      "ed": 172,
      "ust": 173,
      "wi": 174,
      "ea": 175,
      "ver": 176,
      "one": 177,
      "are": 178,
      "ell": 179,
      "ab": 180,
      "ro": 181,
      "es": 182,
      "my": 183,
      "up": 184,
      "just": 185,
      "her": 186,
      "ts": 187,
      "for": 188,
      "this": 189,
      "hi": 190,
      "You": 191,
      "eah": 192,
      "with": 193,
      "nd": 194,
      "kay": 195,
      "ook": 196,
      "ad": 197,
      "The": 198,
      "na": 199,
      "what": 200,
      "No": 201,
      "ter": 202,
      "ly": 203,
      "not": 204,
      "have": 205,
      "...": 206,
      "ould": 207,
      "ir": 208,
      "au": 209,
      "lo": 210,
      "ch": 211,
      "was": 212,
      "don": 213,
      "nt": 214,
      "ant": 215,
      "co": 216,
      "thing": 217,
      "ne": 218,
      "ally": 219,
      "his": 220,
      "Yeah": 221,
      "ry": 222,
      "right": 223,
      "gu": 224,
      "get": 225,
      "What": 226,
      "Hey": 227,
      "Okay": 228,
      "mo": 229,
      ".]": 230,
      "cen": 231,
      "she": 232,
      "here": 233,
      "ink": 234,
      "like": 235,
      "ake": 236,
      "your": 237,
      "Well": 238,
      "can": 239,
      "ti": 240,
      "him": 241,
      "some": 242,
      "look": 243,
      "cene": 244,
      "un": 245,
      "but": 246,
      "Im": 247,
      "ther": 248,
      "Scene": 249,
      "ap": 250,
      "art": 251,
      "there": 252,
      "about": 253,
      "gon": 254,
      "ack": 255,
      "gonna": 256,
      "think": 257,
      "am": 258,
      "ur": 259,
      "uh": 260,
      "if": 261,
      "did": 262,
      "guy": 263,
      "bo": 264,
      "fe": 265,
      "ks": 266,
      "its": 267,
      "got": 268,
      "way": 269,
      "So": 270,
      "ow": 271,
      "ce": 272,
      "ag": 273,
      "!!": 274,
      "ause": 275,
      "And": 276,
      "pl": 277,
      "king": 278,
      "us": 279,
      "ood": 280,
      "um": 281,
      "rom": 282,
      "et": 283,
      "mean": 284,
      "itt": 285,
      "very": 286,
      "ent": 287,
      "oes": 288,
      "see": 289,
      "want": 290,
      "back": 291,
      "oom": 292,
      "ice": 293,
      "really": 294,
      "they": 295,
      "hy": 296,
      "how": 297,
      "dont": 298,
      "She": 299,
      "ill": 300,
      "ind": 301,
      "ight": 302,
      "?!": 303,
      "room": 304,
      "ain": 305,
      "from": 306,
      "end": 307,
      "That": 308,
      "any": 309,
      "by": 310,
      "lea": 311,
      "sh": 312,
      "ard": 313,
      "hen": 314,
      "enter": 315,
      "ine": 316,
      "el": 317,
      "pp": 318,
      "who": 319,
      "wor": 320,
      "Go": 321,
      "ion": 322,
      "It": 323,
      "CH": 324,
      "say": 325,
      "wn": 326,
      "pe": 327,
      "man": 328,
      "ist": 329,
      "de": 330,
      "would": 331,
      "sa": 332,
      "were": 333,
      "All": 334,
      "op": 335,
      "wo": 336,
      "la": 337,
      "come": 338,
      "time": 339,
      "our": 340,
      "ate": 341,
      "over": 342,
      "su": 343,
      "po": 344,
      "ound": 345,
      "ving": 346,
      "ment": 347,
      "ait": 348,
      "off": 349,
      "going": 350,
      "ck": 351,
      "reat": 352,
      "guys": 353,
      "God": 354,
      "cause": 355,
      "good": 356,
      "mm": 357,
      "ive": 358,
      "We": 359,
      "down": 360,
      "tal": 361,
      "orry": 362,
      "tell": 363,
      "lie": 364,
      "then": 365,
      "ig": 366,
      "ex": 367,
      "ie": 368,
      "They": 369,
      "ep": 370,
      "okay": 371,
      "con": 372,
      "han": 373,
      "day": 374,
      "too": 375,
      "ittle": 376,
      "ting": 377,
      "OE": 378,
      "ers": 379,
      "pre": 380,
      "little": 381,
      "other": 382,
      "them": 383,
      "ra": 384,
      "when": 385,
      "hone": 386,
      "Hi": 387,
      "could": 388,
      "take": 389,
      "ong": 390,
      "red": 391,
      "sorry": 392,
      "door": 393,
      "tu": 394,
      "che": 395,
      "make": 396,
      "il": 397,
      "ick": 398,
      "love": 399,
      "Mr": 400,
      "urn": 401,
      "te": 402,
      "But": 403,
      "sto": 404,
      "great": 405,
      "dy": 406,
      "again": 407,
      "does": 408,
      "every": 409,
      "had": 410,
      "fri": 411,
      "well": 412,
      "qu": 413,
      "ace": 414,
      "happ": 415,
      "should": 416,
      "something": 417,
      "wal": 418,
      "Uh": 419,
      "bab": 420,
      "ous": 421,
      "ked": 422,
      "ER": 423,
      "oh": 424,
      "To": 425,
      "ven": 426,
      "read": 427,
      "arts": 428,
      "yeah": 429,
      "has": 430,
      "com": 431,
      "AN": 432,
      "ta": 433,
      "turn": 434,
      "youre": 435,
      "Look": 436,
      "ps": 437,
      "into": 438,
      "ff": 439,
      "cou": 440,
      "Co": 441,
      "mu": 442,
      "sp": 443,
      "friend": 444,
      "wan": 445,
      "ough": 446,
      "artment": 447,
      "able": 448,
      "wait": 449,
      "pro": 450,
      "ul": 451,
      "ye": 452,
      "sc": 453,
      "ide": 454,
      "ON": 455,
      "iss": 456,
      "Yes": 457,
      "more": 458,
      "RO": 459,
      "ast": 460,
      "sed": 461,
      "Than": 462,
      "call": 463,
      "than": 464,
      "isten": 465,
      "fo": 466,
      "ran": 467,
      "Why": 468,
      "still": 469,
      "been": 470,
      "ich": 471,
      "aybe": 472,
      "How": 473,
      "SS": 474,
      "phone": 475,
      "Its": 476,
      "let": 477,
      "ought": 478,
      "This": 479,
      "put": 480,
      "doing": 481,
      "hh": 482,
      "looks": 483,
      "gr": 484,
      "apartment": 485,
      "lf": 486,
      "ike": 487,
      "Re": 488,
      "bed": 489,
      "said": 490,
      "CA": 491,
      "age": 492,
      "ROSS": 493,
      "why": 494,
      "mi": 495,
      "head": 496,
      "row": 497,
      "stu": 498,
      "ble": 499,
      "starts": 500,
      "need": 501,
      "play": 502,
      "ber": 503,
      "enters": 504,
      "give": 505,
      "RA": 506,
      "because": 507,
      "ach": 508,
      "never": 509,
      "leave": 510,
      "RACH": 511,
      "tr": 512,
      "around": 513,
      "ny": 514,
      "thats": 515,
      "new": 516,
      "irl": 517,
      "much": 518,
      "mar": 519,
      "ty": 520,
      "belie": 521,
      "im": 522,
      "LER": 523,
      "entering": 524,
      "CHAN": 525,
      "ring": 526,
      "cant": 527,
      "jo": 528,
      "rea": 529,
      "rying": 530,
      "EL": 531,
      "body": 532,
      "ars": 533,
      "lau": 534,
      "will": 535,
      "feel": 536,
      "clo": 537,
      "where": 538,
      "bet": 539,
      "big": 540,
      "two": 541,
      "ree": 542,
      "ma": 543,
      "les": 544,
      "ation": 545,
      "start": 546,
      "wanna": 547,
      "atch": 548,
      "ug": 549,
      "tor": 550,
      "run": 551,
      "fun": 552,
      "irst": 553,
      "happen": 554,
      "ding": 555,
      "girl": 556,
      "thought": 557,
      "ute": 558,
      "ople": 559,
      "kind": 560,
      "DLER": 561,
      "CHANDLER": 562,
      "away": 563,
      "ICA": 564,
      "lease": 565,
      "Ch": 566,
      "ess": 567,
      "talk": 568,
      "pic": 569,
      "baby": 570,
      "believe": 571,
      "work": 572,
      "open": 573,
      "part": 574,
      "MON": 575,
      "und": 576,
      "MONICA": 577,
      "JOE": 578,
      "JOEY": 579,
      "RACHEL": 580,
      "first": 581,
      "PH": 582,
      "people": 583,
      "self": 584,
      "table": 585,
      "ont": 586,
      "ever": 587,
      "even": 588,
      "ies": 589,
      "night": 590,
      "fore": 591,
      "stand": 592,
      "Come": 593,
      "hes": 594,
      "ah": 595,
      "PHOE": 596,
      "laugh": 597,
      "Mike": 598,
      "There": 599,
      "ried": 600,
      "goes": 601,
      "tually": 602,
      "Wow": 603,
      "looking": 604,
      "Thats": 605,
      "Ok": 606,
      "Who": 607,
      "min": 608,
      "Ill": 609,
      "Do": 610,
      "ci": 611,
      "Per": 612,
      "side": 613,
      "bu": 614,
      "Al": 615,
      "wr": 616,
      "ner": 617,
      "tion": 618,
      "umm": 619,
      "ral": 620,
      "ans": 621,
      "didnt": 622,
      "ass": 623,
      "TH": 624,
      "ame": 625,
      "ish": 626,
      "ite": 627,
      "Cent": 628,
      "BE": 629,
      "ready": 630,
      "Yknow": 631,
      "af": 632,
      "iz": 633,
      "Central": 634,
      "fi": 635,
      "hey": 636,
      "wed": 637,
      "av": 638,
      "maybe": 639,
      "yknow": 640,
      "stuff": 641,
      "walks": 642,
      "ang": 643,
      "their": 644,
      "bs": 645,
      "Perk": 646,
      "reak": 647,
      "getting": 648,
      "Jan": 649,
      "show": 650,
      "di": 651,
      "mad": 652,
      "talking": 653,
      "didn": 654,
      "PHOEBE": 655,
      "Dr": 656,
      "kiss": 657,
      "huh": 658,
      "Gell": 659,
      "gets": 660,
      "sure": 661,
      "win": 662,
      "turns": 663,
      "Now": 664,
      "ath": 665,
      "Are": 666,
      "ater": 667,
      "move": 668,
      "anything": 669,
      "mor": 670,
      "only": 671,
      "real": 672,
      "ses": 673,
      "sing": 674,
      "rest": 675,
      "last": 676,
      "ious": 677,
      "ct": 678,
      "act": 679,
      "swe": 680,
      "itting": 681,
      "Be": 682,
      "Is": 683,
      "ol": 684,
      "watch": 685,
      "before": 686,
      "woman": 687,
      "under": 688,
      "Geller": 689,
      "ton": 690,
      "name": 691,
      "ning": 692,
      "aring": 693,
      "ure": 694,
      "Se": 695,
      "hold": 696,
      "Wait": 697,
      "kid": 698,
      "fin": 699,
      "mon": 700,
      "old": 701,
      "use": 702,
      "Emi": 703,
      "hair": 704,
      "Emily": 705,
      "yes": 706,
      "Really": 707,
      "per": 708,
      "actually": 709,
      "pr": 710,
      "poin": 711,
      "sho": 712,
      "place": 713,
      "ple": 714,
      "both": 715,
      "gotta": 716,
      "ctor": 717,
      "ose": 718,
      "find": 719,
      "men": 720,
      "ool": 721,
      "oney": 722,
      "pret": 723,
      "wh": 724,
      "nice": 725,
      "ull": 726,
      "ya": 727,
      "gether": 728,
      "xt": 729,
      "together": 730,
      "Thank": 731,
      "shes": 732,
      "these": 733,
      "ress": 734,
      "next": 735,
      "air": 736,
      "listen": 737,
      "llo": 738,
      "lot": 739,
      "car": 740,
      "hands": 741,
      "fine": 742,
      "having": 743,
      "ating": 744,
      "ise": 745,
      "lu": 746,
      "ity": 747,
      "Thanks": 748,
      "better": 749,
      "My": 750,
      "bad": 751,
      "ru": 752,
      "ser": 753,
      "sitting": 754,
      "those": 755,
      "Mrs": 756,
      "help": 757,
      "ird": 758,
      "ort": 759,
      "Ohh": 760,
      "ft": 761,
      "em": 762,
      "please": 763,
      "mem": 764,
      "told": 765,
      "Youre": 766,
      "Just": 767,
      "trying": 768,
      "guess": 769,
      "St": 770,
      "things": 771,
      "after": 772,
      "Ben": 773,
      "sex": 774,
      "ian": 775,
      "another": 776,
      "Car": 777,
      "long": 778,
      "whi": 779,
      "Er": 780,
      "Mar": 781,
      "bath": 782,
      "chan": 783,
      "couch": 784,
      "keep": 785,
      "rough": 786,
      "dr": 787,
      "care": 788,
      "ave": 789,
      "pt": 790,
      "face": 791,
      "est": 792,
      "hee": 793,
      "married": 794,
      "hug": 795,
      "coming": 796,
      "Ooh": 797,
      "In": 798,
      "made": 799,
      "Rach": 800,
      "low": 801,
      "Listen": 802,
      "member": 803,
      "through": 804,
      "cks": 805,
      "dis": 806,
      "won": 807,
      "OK": 808,
      "gl": 809,
      "went": 810,
      "someone": 811,
      "stop": 812,
      "hear": 813,
      "offe": 814,
      "Ive": 815,
      "ket": 816,
      "Did": 817,
      "Janice": 818,
      "Phee": 819,
      "ball": 820,
      "leep": 821,
      "key": 822,
      "vie": 823,
      "each": 824,
      "ways": 825,
      "Fran": 826,
      "ary": 827,
      "sup": 828,
      "while": 829,
      "ob": 830,
      "set": 831,
      "left": 832,
      "Pheebs": 833,
      "Good": 834,
      "br": 835,
      "der": 836,
      "ger": 837,
      "wanted": 838,
      "ds": 839,
      "If": 840,
      "date": 841,
      "sit": 842,
      "comes": 843,
      "Umm": 844,
      "wedding": 845,
      "hard": 846,
      "ture": 847,
      "offee": 848,
      "ms": 849,
      "takes": 850,
      "THE": 851,
      "din": 852,
      "everyone": 853,
      "kinda": 854,
      "bathroom": 855,
      "du": 856,
      "Jo": 857,
      "pen": 858,
      "throw": 859,
      "boy": 860,
      "Cut": 861,
      "gi": 862,
      "Char": 863,
      "cle": 864,
      "Hello": 865,
      "pretty": 866,
      "Carol": 867,
      "Can": 868,
      "shi": 869,
      "lly": 870,
      "used": 871,
      "thinking": 872,
      "redits": 873,
      "party": 874,
      "reen": 875,
      "ear": 876,
      "ok": 877,
      "tri": 878,
      "Ex": 879,
      "happened": 880,
      "bl": 881,
      "pause": 882,
      "Here": 883,
      "Because": 884,
      "best": 885,
      "live": 886,
      "ward": 887,
      "cial": 888,
      "kno": 889,
      "grab": 890,
      "most": 891,
      "minute": 892,
      "coffee": 893,
      "else": 894,
      "Alright": 895,
      "sm": 896,
      "ask": 897,
      "wer": 898,
      "bedroom": 899,
      "fr": 900,
      "secon": 901,
      "always": 902,
      "home": 903,
      "Not": 904,
      "bro": 905,
      "app": 906,
      "pan": 907,
      "exc": 908,
      "friends": 909,
      "try": 910,
      "light": 911,
      "Credits": 912,
      "Mo": 913,
      "Rich": 914,
      "sound": 915,
      "nothing": 916,
      "ten": 917,
      "opens": 918,
      "Maybe": 919,
      "tonight": 920,
      "Richard": 921,
      "cr": 922,
      "happy": 923,
      "wrong": 924,
      "lass": 925,
      "doesnt": 926,
      "job": 927,
      "remember": 928,
      "ren": 929,
      "ouse": 930,
      "meet": 931,
      "leaves": 932,
      "mat": 933,
      "des": 934,
      "wee": 935,
      "box": 936,
      "mma": 937,
      "which": 938,
      "life": 939,
      "aul": 940,
      "everything": 941,
      "See": 942,
      "dress": 943,
      "honey": 944,
      "funny": 945,
      "cut": 946,
      "money": 947,
      "ream": 948,
      "si": 949,
      "three": 950,
      "whole": 951,
      "Charlie": 952,
      "az": 953,
      "inter": 954,
      "ister": 955,
      "Gu": 956,
      "ins": 957,
      "Emma": 958,
      "sha": 959,
      "cour": 960,
      "picture": 961,
      "Right": 962,
      "stay": 963,
      "zy": 964,
      "hang": 965,
      "walk": 966,
      "unt": 967,
      "bye": 968,
      "sees": 969,
      "break": 970,
      "pers": 971,
      "aren": 972,
      "ince": 973,
      "being": 974,
      "Po": 975,
      "tally": 976,
      "years": 977,
      "laughs": 978,
      "game": 979,
      "makes": 980,
      "Frank": 981,
      "bit": 982,
      "chi": 983,
      "dd": 984,
      "ful": 985,
      "itc": 986,
      "hall": 987,
      "thank": 988,
      "cked": 989,
      "hind": 990,
      "za": 991,
      "today": 992,
      "Ro": 993,
      "plan": 994,
      "cra": 995,
      "port": 996,
      "anc": 997,
      "less": 998,
      "Huh": 999,
      "behind": 1000,
      "Where": 1001,
      "....": 1002,
      "ump": 1003,
      "spe": 1004,
      "scri": 1005,
      "dad": 1006,
      "vo": 1007,
      "weird": 1008,
      "hot": 1009,
      "Every": 1010,
      "house": 1011,
      "ance": 1012,
      "saying": 1013,
      "ww": 1014,
      "dow": 1015,
      "dec": 1016,
      "Wh": 1017,
      ".\"": 1018,
      "hell": 1019,
      "dinner": 1020,
      "Ah": 1021,
      "Ju": 1022,
      "sleep": 1023,
      "same": 1024,
      "Gun": 1025,
      "Let": 1026,
      "TV": 1027,
      "When": 1028,
      "totally": 1029,
      "upid": 1030,
      "second": 1031,
      "Me": 1032,
      "book": 1033,
      "tin": 1034,
      "Gunther": 1035,
      "idea": 1036,
      "living": 1037,
      "course": 1038,
      "itchen": 1039,
      "mmer": 1040,
      "dif": 1041,
      "ush": 1042,
      "posed": 1043,
      "drink": 1044,
      "giving": 1045,
      "bar": 1046,
      "already": 1047,
      "Pause": 1048,
      "fa": 1049,
      "Then": 1050,
      "doesn": 1051,
      "ire": 1052,
      "pick": 1053,
      "iously": 1054,
      "might": 1055,
      "bably": 1056,
      "Dav": 1057,
      "chair": 1058,
      "kis": 1059,
      "yet": 1060,
      "ated": 1061,
      "wearing": 1062,
      "change": 1063,
      "00": 1064,
      "kitchen": 1065,
      "runs": 1066,
      "puts": 1067,
      "office": 1068,
      "Sure": 1069,
      "lets": 1070,
      "making": 1071,
      "window": 1072,
      "front": 1073,
      "David": 1074,
      "ily": 1075,
      "!!!": 1076,
      "wants": 1077,
      "mou": 1078,
      "stupid": 1079,
      "watching": 1080,
      "Green": 1081,
      "later": 1082,
      "person": 1083,
      "End": 1084,
      "Please": 1085,
      "ited": 1086,
      "irth": 1087,
      "playing": 1088,
      "hour": 1089,
      "proble": 1090,
      "came": 1091,
      "done": 1092,
      "tic": 1093,
      "top": 1094,
      "Tran": 1095,
      "vers": 1096,
      "theres": 1097,
      "Whoa": 1098,
      "crazy": 1099,
      "card": 1100,
      "eat": 1101,
      "ets": 1102,
      "aur": 1103,
      "morrow": 1104,
      "Man": 1105,
      "late": 1106,
      "pull": 1107,
      "rent": 1108,
      "Sus": 1109,
      "arm": 1110,
      "Eric": 1111,
      "says": 1112,
      "couple": 1113,
      "supposed": 1114,
      "grabs": 1115,
      "ue": 1116,
      "Wal": 1117,
      "probably": 1118,
      "year": 1119,
      "point": 1120,
      "Lau": 1121,
      "cat": 1122,
      "though": 1123,
      "unch": 1124,
      "telling": 1125,
      "estion": 1126,
      "fl": 1127,
      "ares": 1128,
      "check": 1129,
      "called": 1130,
      "ssage": 1131,
      "deal": 1132,
      "birth": 1133,
      "Transcri": 1134,
      "hur": 1135,
      "miss": 1136,
      "sits": 1137,
      "sec": 1138,
      "press": 1139,
      "Any": 1140,
      "Does": 1141,
      "aut": 1142,
      "bag": 1143,
      "ew": 1144,
      "question": 1145,
      "reading": 1146,
      "ONE": 1147,
      "One": 1148,
      "Paul": 1149,
      "Um": 1150,
      "sur": 1151,
      "taking": 1152,
      "ason": 1153,
      "stops": 1154,
      "mmercial": 1155,
      "tomorrow": 1156,
      "problem": 1157,
      "Kat": 1158,
      "bb": 1159,
      "cha": 1160,
      "cool": 1161,
      "whats": 1162,
      "Some": 1163,
      "diffe": 1164,
      "eyes": 1165,
      "lad": 1166,
      "mom": 1167,
      "beaut": 1168,
      "times": 1169,
      "fall": 1170,
      "mind": 1171,
      "itten": 1172,
      "ches": 1173,
      "Don": 1174,
      "Tag": 1175,
      "ence": 1176,
      "Ho": 1177,
      "num": 1178,
      "ash": 1179,
      "Whats": 1180,
      "theyre": 1181,
      "standing": 1182,
      "own": 1183,
      "Bye": 1184,
      "Open": 1185,
      "RE": 1186,
      "dog": 1187,
      "arents": 1188,
      "icks": 1189,
      "enough": 1190,
      "picks": 1191,
      "Wo": 1192,
      "Rachels": 1193,
      "mother": 1194,
      "bring": 1195,
      "must": 1196,
      "thanks": 1197,
      "answer": 1198,
      "sister": 1199,
      "also": 1200,
      "pping": 1201,
      "sen": 1202,
      "ically": 1203,
      "saw": 1204,
      "Guy": 1205,
      "led": 1206,
      "Susan": 1207,
      "An": 1208,
      "found": 1209,
      "ster": 1210,
      "Poin": 1211,
      "Transcribed": 1212,
      "EN": 1213,
      "Wi": 1214,
      "iful": 1215,
      "pants": 1216,
      "voice": 1217,
      "urse": 1218,
      "Sorry": 1219,
      "pass": 1220,
      "sl": 1221,
      "ead": 1222,
      "everybody": 1223,
      "matter": 1224,
      "Or": 1225,
      "gas": 1226,
      "ither": 1227,
      "parents": 1228,
      "beautiful": 1229,
      "Break": 1230,
      "ape": 1231,
      "sent": 1232,
      "Bar": 1233,
      "pu": 1234,
      "high": 1235,
      "anymore": 1236,
      "Were": 1237,
      "understand": 1238,
      "Bing": 1239,
      "ves": 1240,
      "such": 1241,
      "quick": 1242,
      "aw": 1243,
      "aper": 1244,
      "mouth": 1245,
      "MR": 1246,
      "tt": 1247,
      "Chandlers": 1248,
      "ween": 1249,
      "cook": 1250,
      "fing": 1251,
      "Joeys": 1252,
      "holding": 1253,
      "fam": 1254,
      "ker": 1255,
      "wear": 1256,
      "gives": 1257,
      "figu": 1258,
      "realiz": 1259,
      "Josh": 1260,
      "Amy": 1261,
      "mine": 1262,
      "seen": 1263,
      "cor": 1264,
      "food": 1265,
      "nter": 1266,
      "inv": 1267,
      "ition": 1268,
      "took": 1269,
      "Id": 1270,
      "heard": 1271,
      "luck": 1272,
      "Pet": 1273,
      "dro": 1274,
      "Great": 1275,
      "since": 1276,
      "RI": 1277,
      "Th": 1278,
      "dge": 1279,
      "je": 1280,
      "half": 1281,
      "points": 1282,
      "Exc": 1283,
      "log": 1284,
      "moving": 1285,
      "tie": 1286,
      "kids": 1287,
      "god": 1288,
      "ign": 1289,
      "Points": 1290,
      "aa": 1291,
      "mach": 1292,
      "ret": 1293,
      "myself": 1294,
      "women": 1295,
      "father": 1296,
      "Dont": 1297,
      "cute": 1298,
      "may": 1299,
      "Your": 1300,
      "cept": 1301,
      "Commercial": 1302,
      "waiting": 1303,
      "sweet": 1304,
      "different": 1305,
      "With": 1306,
      "ase": 1307,
      "cer": 1308,
      "five": 1309,
      "kill": 1310,
      "pay": 1311,
      "gang": 1312,
      "tries": 1313,
      "week": 1314,
      "hed": 1315,
      "seeing": 1316,
      "gave": 1317,
      "hor": 1318,
      "knew": 1319,
      "ste": 1320,
      "Mona": 1321,
      "doctor": 1322,
      "rings": 1323,
      "girls": 1324,
      "shocked": 1325,
      "kisses": 1326,
      "gn": 1327,
      "For": 1328,
      "Get": 1329,
      "cking": 1330,
      "amaz": 1331,
      "wonder": 1332,
      "Wr": 1333,
      "rel": 1334,
      "outside": 1335,
      "Fine": 1336,
      "flo": 1337,
      "four": 1338,
      "tou": 1339,
      "morning": 1340,
      "birthday": 1341,
      "Tri": 1342,
      "full": 1343,
      "hu": 1344,
      "laughing": 1345,
      "Ahh": 1346,
      "sw": 1347,
      "reet": 1348,
      "hate": 1349,
      "Kathy": 1350,
      ").": 1351,
      "Dire": 1352,
      "Honey": 1353,
      "oot": 1354,
      "walking": 1355,
      "feeling": 1356,
      "New": 1357,
      "par": 1358,
      "doll": 1359,
      "sol": 1360,
      "movie": 1361,
      "somebody": 1362,
      "whoa": 1363,
      "Opening": 1364,
      "IN": 1365,
      "Of": 1366,
      "yell": 1367,
      "rible": 1368,
      "singing": 1369,
      "AR": 1370,
      "bor": 1371,
      "fast": 1372,
      "isn": 1373,
      "until": 1374,
      "number": 1375,
      "ned": 1376,
      "sme": 1377,
      "vent": 1378,
      "close": 1379,
      "between": 1380,
      "Starts": 1381,
      "Dan": 1382,
      "res": 1383,
      "pped": 1384,
      "Pete": 1385,
      "Bob": 1386,
      "Eli": 1387,
      "ni": 1388,
      "beth": 1389,
      "wel": 1390,
      "Hes": 1391,
      "chick": 1392,
      "cel": 1393,
      "working": 1394,
      "dden": 1395,
      "Joshu": 1396,
      "cry": 1397,
      "lap": 1398,
      "akes": 1399,
      "turning": 1400,
      "throws": 1401,
      "zabeth": 1402,
      "Woman": 1403,
      "Elizabeth": 1404,
      "inc": 1405,
      "lle": 1406,
      "alone": 1407,
      "gone": 1408,
      "pain": 1409,
      "smi": 1410,
      "ical": 1411,
      "fect": 1412,
      "joke": 1413,
      "ship": 1414,
      "wards": 1415,
      "ices": 1416,
      "without": 1417,
      "pie": 1418,
      "Monicas": 1419,
      "means": 1420,
      "excited": 1421,
      "WI": 1422,
      "Will": 1423,
      "dri": 1424,
      "ee": 1425,
      "Listens": 1426,
      "Joshua": 1427,
      "!\"": 1428,
      "prom": 1429,
      "leg": 1430,
      "yourself": 1431,
      "airs": 1432,
      "child": 1433,
      "Written": 1434,
      "Bo": 1435,
      "Like": 1436,
      "por": 1437,
      "rist": 1438,
      "thinks": 1439,
      "IE": 1440,
      "lin": 1441,
      "serious": 1442,
      "aurant": 1443,
      "mas": 1444,
      "ph": 1445,
      "era": 1446,
      "stairs": 1447,
      "surpr": 1448,
      "reason": 1449,
      "str": 1450,
      "buy": 1451,
      "kidding": 1452,
      "line": 1453,
      "smo": 1454,
      "coat": 1455,
      "Shes": 1456,
      "word": 1457,
      "scream": 1458,
      "Theres": 1459,
      "Excuse": 1460,
      "amazing": 1461,
      "band": 1462,
      "oud": 1463,
      "once": 1464,
      "andy": 1465,
      "wife": 1466,
      "fire": 1467,
      "moves": 1468,
      "WITH": 1469,
      "Ac": 1470,
      "floor": 1471,
      "Am": 1472,
      "Ur": 1473,
      "rup": 1474,
      "knock": 1475,
      "huge": 1476,
      "cam": 1477,
      "eas": 1478,
      "fact": 1479,
      "tain": 1480,
      "ina": 1481,
      "ates": 1482,
      "alright": 1483,
      "true": 1484,
      "Director": 1485,
      "eating": 1486,
      "hope": 1487,
      "ones": 1488,
      "ago": 1489,
      "class": 1490,
      "dance": 1491,
      "spo": 1492,
      "utes": 1493,
      "forget": 1494,
      "chool": 1495,
      "six": 1496,
      "Cause": 1497,
      "cup": 1498,
      "either": 1499,
      "pa": 1500,
      "glass": 1501,
      "wont": 1502,
      "arent": 1503,
      "holds": 1504,
      "perfect": 1505,
      "tape": 1506,
      "iting": 1507,
      "ooh": 1508,
      "contin": 1509,
      "counter": 1510,
      "minutes": 1511,
      "quickly": 1512,
      "inside": 1513,
      "roll": 1514,
      "pregn": 1515,
      "sounds": 1516,
      "As": 1517,
      "dition": 1518,
      "rt": 1519,
      "ands": 1520,
      "leaving": 1521,
      "running": 1522,
      "Julie": 1523,
      "smell": 1524,
      "ken": 1525,
      "ised": 1526,
      "chee": 1527,
      "Ursu": 1528,
      "Aas": 1529,
      "Gr": 1530,
      "Gary": 1531,
      "cho": 1532,
      "gen": 1533,
      "onto": 1534,
      "med": 1535,
      "aught": 1536,
      "anyone": 1537,
      "babies": 1538,
      "Aasen": 1539,
      "os": 1540,
      "isnt": 1541,
      "moment": 1542,
      "himself": 1543,
      "worry": 1544,
      "import": 1545,
      "Clo": 1546,
      "slow": 1547,
      "llow": 1548,
      "important": 1549,
      "Jill": 1550,
      "On": 1551,
      "wish": 1552,
      "met": 1553,
      "closes": 1554,
      "carrying": 1555,
      "Mark": 1556,
      "Hold": 1557,
      "ling": 1558,
      "song": 1559,
      "sign": 1560,
      "almost": 1561,
      "iling": 1562,
      "spea": 1563,
      "Marcel": 1564,
      "Would": 1565,
      "bri": 1566,
      "lt": 1567,
      "tham": 1568,
      "nods": 1569,
      "story": 1570,
      "started": 1571,
      "Waltham": 1572,
      "cu": 1573,
      "fight": 1574,
      "free": 1575,
      "ible": 1576,
      "seat": 1577,
      "knows": 1578,
      "ade": 1579,
      "bus": 1580,
      "crying": 1581,
      "inte": 1582,
      "lost": 1583,
      "view": 1584,
      "Joan": 1585,
      "lady": 1586,
      "Ursula": 1587,
      "Ow": 1588,
      "Sh": 1589,
      "pack": 1590,
      "cent": 1591,
      "appro": 1592,
      "spit": 1593,
      "finally": 1594,
      "month": 1595,
      "interrup": 1596,
      "Dad": 1597,
      "paper": 1598,
      "ondon": 1599,
      "thes": 1600,
      "kets": 1601,
      "world": 1602,
      "Janine": 1603,
      "chance": 1604,
      "hours": 1605,
      "bbian": 1606,
      "mag": 1607,
      "school": 1608,
      "vor": 1609,
      "towards": 1610,
      "ides": 1611,
      "Christ": 1612,
      "Tribbian": 1613,
      "ddenly": 1614,
      "ele": 1615,
      "ping": 1616,
      "ext": 1617,
      "clean": 1618,
      "ARD": 1619,
      "IT": 1620,
      "io": 1621,
      "street": 1622,
      "Rosss": 1623,
      "Nothing": 1624,
      "amn": 1625,
      "Which": 1626,
      "relation": 1627,
      "solute": 1628,
      "London": 1629,
      "cast": 1630,
      "ction": 1631,
      "rew": 1632,
      "LL": 1633,
      "mate": 1634,
      "wasnt": 1635,
      "days": 1636,
      "interest": 1637,
      "cab": 1638,
      "shoe": 1639,
      "ors": 1640,
      "ident": 1641,
      "machine": 1642,
      "continu": 1643,
      "pregnant": 1644,
      "Christmas": 1645,
      "nie": 1646,
      "water": 1647,
      "att": 1648,
      "message": 1649,
      "uts": 1650,
      "glad": 1651,
      "Tribbiani": 1652,
      "ST": 1653,
      "mis": 1654,
      "form": 1655,
      "heads": 1656,
      "RICH": 1657,
      "Actually": 1658,
      "Ste": 1659,
      "dead": 1660,
      "naked": 1661,
      "comfor": 1662,
      "kissing": 1663,
      "swee": 1664,
      "boyfriend": 1665,
      "Mom": 1666,
      "solutely": 1667,
      "RICHARD": 1668,
      "Lets": 1669,
      "boo": 1670,
      "danc": 1671,
      "eye": 1672,
      "ooo": 1673,
      "wouldn": 1674,
      "wouldnt": 1675,
      "exact": 1676,
      "clothes": 1677,
      "ging": 1678,
      "audition": 1679,
      "wasn": 1680,
      "conf": 1681,
      "count": 1682,
      "ations": 1683,
      "Erica": 1684,
      "cli": 1685,
      "lar": 1686,
      "sick": 1687,
      "vis": 1688,
      "least": 1689,
      "duck": 1690,
      "broke": 1691,
      "ild": 1692,
      "many": 1693,
      "tro": 1694,
      "wa": 1695,
      "wers": 1696,
      "ved": 1697,
      "follow": 1698,
      "Thanksgiving": 1699,
      "touch": 1700,
      "ork": 1701,
      "restaurant": 1702,
      "Barry": 1703,
      "Du": 1704,
      "Have": 1705,
      "mid": 1706,
      "anyway": 1707,
      "ugs": 1708,
      "pulls": 1709,
      "relationship": 1710,
      "fav": 1711,
      "past": 1712,
      "lear": 1713,
      "ghs": 1714,
      "asked": 1715,
      "Uhh": 1716,
      "Anyway": 1717,
      "Jack": 1718,
      "bre": 1719,
      "sal": 1720,
      "char": 1721,
      "finish": 1722,
      "Bu": 1723,
      "mp": 1724,
      "son": 1725,
      "wall": 1726,
      "tive": 1727,
      "news": 1728,
      "Everyone": 1729,
      "bal": 1730,
      "scene": 1731,
      "ises": 1732,
      "aces": 1733,
      "along": 1734,
      "tions": 1735,
      "shirt": 1736,
      "Par": 1737,
      "fli": 1738,
      "hit": 1739,
      "step": 1740,
      "Ohhh": 1741,
      "lier": 1742,
      "few": 1743,
      "Looks": 1744,
      "?\"": 1745,
      "At": 1746,
      "sk": 1747,
      "ouble": 1748,
      "ared": 1749,
      "umps": 1750,
      "joy": 1751,
      "ize": 1752,
      "small": 1753,
      "Pl": 1754,
      "Ser": 1755,
      "Ugh": 1756,
      "cy": 1757,
      "butt": 1758,
      "comp": 1759,
      "grand": 1760,
      "ces": 1761,
      "ju": 1762,
      "cover": 1763,
      "against": 1764,
      "shake": 1765,
      "hallway": 1766,
      "family": 1767,
      "piece": 1768,
      "Ab": 1769,
      "die": 1770,
      "foot": 1771,
      "iet": 1772,
      "oun": 1773,
      "youve": 1774,
      "soon": 1775,
      "lying": 1776,
      "uhm": 1777,
      "board": 1778,
      "marry": 1779,
      "answers": 1780,
      "hugs": 1781,
      "appy": 1782,
      "hurt": 1783,
      "Ti": 1784,
      "Un": 1785,
      "boss": 1786,
      "sand": 1787,
      "sli": 1788,
      "havent": 1789,
      "divor": 1790,
      "earlier": 1791,
      "easy": 1792,
      "Day": 1793,
      "Run": 1794,
      "gin": 1795,
      "gar": 1796,
      "ross": 1797,
      "ons": 1798,
      "anybody": 1799,
      "present": 1800,
      "yelling": 1801,
      "gif": 1802,
      "loo": 1803,
      "lunch": 1804,
      "wow": 1805,
      "als": 1806,
      "colle": 1807,
      "glares": 1808,
      "obv": 1809,
      "dollars": 1810,
      "Stop": 1811,
      "meant": 1812,
      "aches": 1813,
      "haven": 1814,
      "notices": 1815,
      "build": 1816,
      "izza": 1817,
      "brother": 1818,
      "Hmm": 1819,
      "MN": 1820,
      "Pa": 1821,
      "cus": 1822,
      "mus": 1823,
      "actor": 1824,
      "icking": 1825,
      "stri": 1826,
      "upset": 1827,
      "cannot": 1828,
      "!!!!": 1829,
      "test": 1830,
      "stands": 1831,
      "dle": 1832,
      "pri": 1833,
      "sad": 1834,
      "vous": 1835,
      "across": 1836,
      "staring": 1837,
      "asleep": 1838,
      "ams": 1839,
      "ancy": 1840,
      "MNCA": 1841,
      "Hands": 1842,
      "Kate": 1843,
      "ced": 1844,
      "jump": 1845,
      "pper": 1846,
      "pretend": 1847,
      "tickets": 1848,
      "spital": 1849,
      "dra": 1850,
      "ia": 1851,
      "mer": 1852,
      "ption": 1853,
      "tea": 1854,
      "itch": 1855,
      "whos": 1856,
      "except": 1857,
      "finite": 1858,
      "shot": 1859,
      "embar": 1860,
      "gasps": 1861,
      "Could": 1862,
      "Ver": 1863,
      "tur": 1864,
      "ished": 1865,
      "girlfriend": 1866,
      "shower": 1867,
      "Closing": 1868,
      "Goes": 1869,
      "Give": 1870,
      "Gav": 1871,
      "whis": 1872,
      "zz": 1873,
      "ank": 1874,
      "riage": 1875,
      "spend": 1876,
      "massage": 1877,
      "clear": 1878,
      "knocks": 1879,
      "plane": 1880,
      "figure": 1881,
      "Lo": 1882,
      "gage": 1883,
      "sil": 1884,
      "squ": 1885,
      "couldn": 1886,
      "Gavin": 1887,
      "Happy": 1888,
      "brea": 1889,
      "seems": 1890,
      "promise": 1891,
      "exactly": 1892,
      "Dude": 1893,
      "Che": 1894,
      "Ru": 1895,
      "Room": 1896,
      "ng": 1897,
      "ator": 1898,
      "enti": 1899,
      "rid": 1900,
      "rown": 1901,
      "camera": 1902,
      "sandw": 1903,
      "De": 1904,
      "bur": 1905,
      "gent": 1906,
      "inst": 1907,
      "Phoebes": 1908,
      "forgot": 1909,
      "yours": 1910,
      "exits": 1911,
      "couldnt": 1912,
      "brought": 1913,
      "Joanna": 1914,
      "Time": 1915,
      "Nice": 1916,
      "cket": 1917,
      "pi": 1918,
      "tory": 1919,
      "stra": 1920,
      "ries": 1921,
      "talked": 1922,
      "marriage": 1923,
      "falls": 1924,
      "sweetie": 1925,
      "finitely": 1926,
      "drun": 1927,
      "poss": 1928,
      "bow": 1929,
      "iness": 1930,
      "rass": 1931,
      "comple": 1932,
      "special": 1933,
      "mess": 1934,
      "acher": 1935,
      "terrible": 1936,
      "aked": 1937,
      "cess": 1938,
      "pee": 1939,
      "nervous": 1940,
      "ments": 1941,
      "MRS": 1942,
      "building": 1943,
      "York": 1944,
      "fair": 1945,
      "sy": 1946,
      "wine": 1947,
      "heart": 1948,
      "ats": 1949,
      "icul": 1950,
      "stares": 1951,
      "plate": 1952,
      "pose": 1953,
      "hangs": 1954,
      "Lauren": 1955,
      "Dou": 1956,
      "gust": 1957,
      "returning": 1958,
      "ofess": 1959,
      "doin": 1960,
      "lose": 1961,
      "raid": 1962,
      "finger": 1963,
      "embarrass": 1964,
      "Aww": 1965,
      "gest": 1966,
      "herself": 1967,
      "whatever": 1968,
      "ung": 1969,
      "plain": 1970,
      "store": 1971,
      "monkey": 1972,
      "slowly": 1973,
      "?!!": 1974,
      "Our": 1975,
      "cur": 1976,
      "land": 1977,
      "stick": 1978,
      "ING": 1979,
      "Danny": 1980,
      "interrupting": 1981,
      "comfortable": 1982,
      "Ma": 1983,
      "ba": 1984,
      "bra": 1985,
      "py": 1986,
      "pot": 1987,
      "ched": 1988,
      "lue": 1989,
      "sexy": 1990,
      "disgust": 1991,
      "breast": 1992,
      "bas": 1993,
      "bla": 1994,
      "hum": 1995,
      "hmm": 1996,
      "jam": 1997,
      "list": 1998,
      "olo": 1999,
      "ane": 2000,
      "youll": 2001,
      "seem": 2002,
      "putting": 2003,
      "dire": 2004,
      "fully": 2005,
      "smiles": 2006,
      "):": 2007,
      "US": 2008,
      "partment": 2009,
      "sle": 2010,
      "enjoy": 2011,
      "arcast": 2012,
      "amp": 2013,
      "lax": 2014,
      "suddenly": 2015,
      "straight": 2016,
      "cal": 2017,
      "cake": 2018,
      "cig": 2019,
      "catch": 2020,
      "loud": 2021,
      "mil": 2022,
      "sn": 2023,
      "relax": 2024,
      "bell": 2025,
      "apo": 2026,
      "shoulder": 2027,
      "favor": 2028,
      "Chi": 2029,
      "Two": 2030,
      "Yep": 2031,
      "fat": 2032,
      "oup": 2033,
      "bott": 2034,
      "usband": 2035,
      "Drake": 2036,
      "drunk": 2037,
      "push": 2038,
      "ness": 2039,
      "till": 2040,
      "sub": 2041,
      "Theyre": 2042,
      "opening": 2043,
      "ault": 2044,
      "obviously": 2045,
      "complete": 2046,
      "ED": 2047,
      "Miss": 2048,
      "Sr": 2049,
      "case": 2050,
      "da": 2051,
      "ev": 2052,
      "fake": 2053,
      "flow": 2054,
      "husband": 2055,
      "mist": 2056,
      "pizza": 2057,
      "reve": 2058,
      "enn": 2059,
      "seven": 2060,
      "likes": 2061,
      "calling": 2062,
      "afraid": 2063,
      "cted": 2064,
      "smiling": 2065,
      "incred": 2066,
      "magaz": 2067,
      "Steve": 2068,
      "Paolo": 2069,
      "entire": 2070,
      "BU": 2071,
      "Bon": 2072,
      "Tell": 2073,
      "blow": 2074,
      "fault": 2075,
      "purse": 2076,
      "ror": 2077,
      "ual": 2078,
      "Hel": 2079,
      "antic": 2080,
      "ELLER": 2081,
      "keys": 2082,
      "weeks": 2083,
      "gift": 2084,
      "\".": 2085,
      "GELLER": 2086,
      "Pe": 2087,
      "gg": 2088,
      "hund": 2089,
      "engage": 2090,
      "liked": 2091,
      "worried": 2092,
      "moved": 2093,
      "Exits": 2094,
      "answering": 2095,
      "sandwich": 2096,
      "hundred": 2097,
      "10": 2098,
      "Mind": 2099,
      "fish": 2100,
      "hoo": 2101,
      "sarcast": 2102,
      "ings": 2103,
      "rily": 2104,
      "hospital": 2105,
      "elle": 2106,
      "irty": 2107,
      "ends": 2108,
      "shut": 2109,
      "words": 2110,
      "ately": 2111,
      "hhhh": 2112,
      "tru": 2113,
      "chicken": 2114,
      "dancing": 2115,
      "confused": 2116,
      "Runs": 2117,
      "Damn": 2118,
      "Gets": 2119,
      "Take": 2120,
      "cell": 2121,
      "fell": 2122,
      "jumps": 2123,
      "abs": 2124,
      "appoint": 2125,
      "roommate": 2126,
      "reath": 2127,
      "ils": 2128,
      "figured": 2129,
      "music": 2130,
      "En": 2131,
      "Li": 2132,
      "cl": 2133,
      "dating": 2134,
      "dream": 2135,
      "vide": 2136,
      "ines": 2137,
      "returns": 2138,
      "quiet": 2139,
      "imag": 2140,
      "join": 2141,
      "starting": 2142,
      "lights": 2143,
      "desk": 2144,
      "fingers": 2145,
      "Af": 2146,
      "Noo": 2147,
      "Ral": 2148,
      "bers": 2149,
      "bast": 2150,
      "bird": 2151,
      "breath": 2152,
      "ddy": 2153,
      "fre": 2154,
      "fill": 2155,
      "rain": 2156,
      "order": 2157,
      "asking": 2158,
      "note": 2159,
      "feet": 2160,
      "illy": 2161,
      "law": 2162,
      "fridge": 2163,
      "Doctor": 2164,
      "writing": 2165,
      "shows": 2166,
      "welcome": 2167,
      "lapse": 2168,
      "surprise": 2169,
      "continued": 2170,
      "middle": 2171,
      "college": 2172,
      "Ralph": 2173,
      "Ha": 2174,
      "KE": 2175,
      "bought": 2176,
      "gay": 2177,
      "kin": 2178,
      "rat": 2179,
      "vice": 2180,
      "hears": 2181,
      "ions": 2182,
      "istant": 2183,
      "definitely": 2184,
      "ckles": 2185,
      "Remember": 2186,
      "Inter": 2187,
      "black": 2188,
      "END": 2189,
      "months": 2190,
      "Mindy": 2191,
      "After": 2192,
      "AT": 2193,
      "Out": 2194,
      "Tree": 2195,
      "WH": 2196,
      "far": 2197,
      "ial": 2198,
      "tw": 2199,
      "ted": 2200,
      "tried": 2201,
      "whe": 2202,
      "stun": 2203,
      "lock": 2204,
      "comm": 2205,
      "worse": 2206,
      "scared": 2207,
      "ground": 2208,
      "bucks": 2209,
      "excuse": 2210,
      "interview": 2211,
      "hanging": 2212,
      "sleeping": 2213,
      "arently": 2214,
      "cigare": 2215,
      "EDD": 2216,
      "'.": 2217,
      "),": 2218,
      "30": 2219,
      "Was": 2220,
      "bill": 2221,
      "candy": 2222,
      "ef": 2223,
      "freak": 2224,
      "sof": 2225,
      "hello": 2226,
      "rece": 2227,
      "acting": 2228,
      "star": 2229,
      "nose": 2230,
      "ters": 2231,
      "bot": 2232,
      "Alice": 2233,
      "sweater": 2234,
      "rence": 2235,
      "dressed": 2236,
      "Walks": 2237,
      "pressed": 2238,
      "missed": 2239,
      "looked": 2240,
      "Girl": 2241,
      "Mic": 2242,
      "Rea": 2243,
      "bunch": 2244,
      "youd": 2245,
      "ics": 2246,
      "cold": 2247,
      "aps": 2248,
      "quit": 2249,
      "Tom": 2250,
      "stuck": 2251,
      "clock": 2252,
      "smart": 2253,
      "ashback": 2254,
      "realizes": 2255,
      "feelings": 2256,
      "smile": 2257,
      "milk": 2258,
      "Ar": 2259,
      "Aunt": 2260,
      "Kim": 2261,
      "NO": 2262,
      "Su": 2263,
      "ib": 2264,
      "mes": 2265,
      "arri": 2266,
      "preci": 2267,
      "screen": 2268,
      "ruin": 2269,
      "Laughs": 2270,
      "glasses": 2271,
      "shoes": 2272,
      "turkey": 2273,
      "--": 2274,
      "Hang": 2275,
      "Tim": 2276,
      "gy": 2277,
      "grow": 2278,
      "hits": 2279,
      "ming": 2280,
      "pill": 2281,
      "lia": 2282,
      "hole": 2283,
      "gue": 2284,
      "using": 2285,
      "loves": 2286,
      "bert": 2287,
      "maid": 2288,
      "picked": 2289,
      "cards": 2290,
      "wondering": 2291,
      "Treeger": 2292,
      "Mel": 2293,
      "Off": 2294,
      "ann": 2295,
      "oof": 2296,
      "worked": 2297,
      "spon": 2298,
      "died": 2299,
      "smoke": 2300,
      "Doug": 2301,
      "Big": 2302,
      "GRE": 2303,
      "Sa": 2304,
      "Sar": 2305,
      "del": 2306,
      "ier": 2307,
      "mir": 2308,
      "pes": 2309,
      "iso": 2310,
      "absolutely": 2311,
      "ney": 2312,
      "sometimes": 2313,
      "Got": 2314,
      "convers": 2315,
      "feels": 2316,
      "closer": 2317,
      "seconds": 2318,
      "decid": 2319,
      "horrible": 2320,
      "business": 2321,
      "Seriously": 2322,
      "reveal": 2323,
      "stunned": 2324,
      ".'": 2325,
      "20": 2326,
      "50": 2327,
      "Br": 2328,
      "Mor": 2329,
      "ili": 2330,
      "jac": 2331,
      "page": 2332,
      "third": 2333,
      "guest": 2334,
      "umb": 2335,
      "cony": 2336,
      "contro": 2337,
      "believ": 2338,
      "mail": 2339,
      "fix": 2340,
      "angrily": 2341,
      "listens": 2342,
      "emp": 2343,
      "porn": 2344,
      "screaming": 2345,
      "bottle": 2346,
      "Her": 2347,
      "Le": 2348,
      "twin": 2349,
      "ze": 2350,
      "beer": 2351,
      "arms": 2352,
      "sell": 2353,
      "ley": 2354,
      "ives": 2355,
      "loved": 2356,
      "turned": 2357,
      "needs": 2358,
      "trac": 2359,
      "Waiter": 2360,
      "finished": 2361,
      "meeting": 2362,
      "boxes": 2363,
      "Guys": 2364,
      "Bobby": 2365,
      "Boy": 2366,
      "surprised": 2367,
      "apolog": 2368,
      "magazine": 2369,
      "GREEN": 2370,
      "conversation": 2371,
      ".:": 2372,
      "His": 2373,
      "Je": 2374,
      "Phi": 2375,
      "Zel": 2376,
      "cand": 2377,
      "cri": 2378,
      "eight": 2379,
      "erm": 2380,
      "ert": 2381,
      "town": 2382,
      "nor": 2383,
      "lead": 2384,
      "ged": 2385,
      "teach": 2386,
      "buddy": 2387,
      "showing": 2388,
      "Ending": 2389,
      "Grabs": 2390,
      "extra": 2391,
      "completely": 2392,
      "control": 2393,
      "??": 2394,
      "Aw": 2395,
      "ALL": 2396,
      "Ce": 2397,
      "Est": 2398,
      "Te": 2399,
      "city": 2400,
      "kne": 2401,
      "uation": 2402,
      "issu": 2403,
      "accent": 2404,
      "ider": 2405,
      "anta": 2406,
      "felt": 2407,
      "happens": 2408,
      "fired": 2409,
      "finds": 2410,
      "hotel": 2411,
      "kissed": 2412,
      "secret": 2413,
      "Ange": 2414,
      "realize": 2415,
      "drops": 2416,
      "Very": 2417,
      "slept": 2418,
      "video": 2419,
      "::": 2420,
      "Eh": 2421,
      "Hall": 2422,
      "Qu": 2423,
      "fit": 2424,
      "kward": 2425,
      "pat": 2426,
      "sir": 2427,
      "...?": 2428,
      "neck": 2429,
      "boat": 2430,
      "explain": 2431,
      "astic": 2432,
      "hhh": 2433,
      "write": 2434,
      "keeps": 2435,
      "lives": 2436,
      "pushes": 2437,
      "strong": 2438,
      "Holds": 2439,
      "grandmother": 2440,
      "Bur": 2441,
      "Min": 2442,
      "Tho": 2443,
      "ail": 2444,
      "blue": 2445,
      "clu": 2446,
      "den": 2447,
      "works": 2448,
      "waiter": 2449,
      "drinking": 2450,
      "cookies": 2451,
      "legs": 2452,
      "aughter": 2453,
      "shakes": 2454,
      "EDDIE": 2455,
      "Sarah": 2456,
      "Zelner": 2457,
      "Dina": 2458,
      "Long": 2459,
      "Sp": 2460,
      "Santa": 2461,
      "pop": 2462,
      "send": 2463,
      "wave": 2464,
      "respon": 2465,
      "noise": 2466,
      "kept": 2467,
      "covers": 2468,
      "shed": 2469,
      "inks": 2470,
      "acks": 2471,
      "chef": 2472,
      "checking": 2473,
      "Looking": 2474,
      "listening": 2475,
      "sense": 2476,
      "lucky": 2477,
      "weekend": 2478,
      "interesting": 2479,
      "balcony": 2480,
      "ofessor": 2481,
      "Bonnie": 2482,
      "Estelle": 2483,
      "Ear": 2484,
      "Ya": 2485,
      "bi": 2486,
      "igh": 2487,
      "tle": 2488,
      "reg": 2489,
      "Heckles": 2490,
      "ended": 2491,
      "teen": 2492,
      "shouldnt": 2493,
      "ulations": 2494,
      "underwear": 2495,
      "pointing": 2496,
      "Robert": 2497,
      "sents": 2498,
      "Both": 2499,
      "Sandy": 2500,
      "Turn": 2501,
      "Takes": 2502,
      "Ve": 2503,
      "Wha": 2504,
      "bite": 2505,
      "ls": 2506,
      "sco": 2507,
      "erry": 2508,
      "noy": 2509,
      "lean": 2510,
      "lebr": 2511,
      "ride": 2512,
      "idio": 2513,
      "nap": 2514,
      "motion": 2515,
      "appreci": 2516,
      "celebr": 2517,
      "hows": 2518,
      "presents": 2519,
      "quite": 2520,
      "calls": 2521,
      "pract": 2522,
      "wenty": 2523,
      "breakfast": 2524,
      "Everybody": 2525,
      "Days": 2526,
      "LE": 2527,
      "cre": 2528,
      "cream": 2529,
      "owe": 2530,
      "ually": 2531,
      "annoy": 2532,
      "atur": 2533,
      "sticks": 2534,
      "ora": 2535,
      "lips": 2536,
      "moon": 2537,
      "agree": 2538,
      "expe": 2539,
      "spent": 2540,
      "trouble": 2541,
      "emer": 2542,
      "apping": 2543,
      "gency": 2544,
      "mistake": 2545,
      "isode": 2546,
      "jacket": 2547,
      "'?": 2548,
      "Nurse": 2549,
      "Pr": 2550,
      "Pro": 2551,
      "Sil": 2552,
      "bing": 2553,
      "bage": 2554,
      "bian": 2555,
      "dent": 2556,
      "hon": 2557,
      "hung": 2558,
      "nurse": 2559,
      "young": 2560,
      "beg": 2561,
      "nobody": 2562,
      "Nope": 2563,
      "near": 2564,
      "button": 2565,
      "pocket": 2566,
      "ERE": 2567,
      "seriously": 2568,
      "drag": 2569,
      "bitch": 2570,
      "ticket": 2571,
      "children": 2572,
      "speak": 2573,
      "19": 2574,
      "Hugs": 2575,
      "ME": 2576,
      "Mac": 2577,
      "cred": 2578,
      "kick": 2579,
      "memor": 2580,
      "stare": 2581,
      "apart": 2582,
      "gotten": 2583,
      "plans": 2584,
      "posit": 2585,
      "AND": 2586,
      "assistant": 2587,
      "decide": 2588,
      "awkward": 2589,
      "wonderful": 2590,
      "cheek": 2591,
      "osaur": 2592,
      "learn": 2593,
      "believable": 2594,
      "Angela": 2595,
      "Cong": 2596,
      "OU": 2597,
      "Pors": 2598,
      "cap": 2599,
      "ient": 2600,
      "worst": 2601,
      "stopped": 2602,
      "angry": 2603,
      "cross": 2604,
      "decis": 2605,
      "ontolog": 2606,
      "flowers": 2607,
      "incredible": 2608,
      "idiot": 2609,
      "Ly": 2610,
      "OH": 2611,
      "hide": 2612,
      "mill": 2613,
      "tte": 2614,
      "weve": 2615,
      "uhh": 2616,
      "short": 2617,
      "pol": 2618,
      "igg": 2619,
      "others": 2620,
      "cheer": 2621,
      "yester": 2622,
      "forever": 2623,
      "proud": 2624,
      "early": 2625,
      "trip": 2626,
      "pictures": 2627,
      "Roger": 2628,
      "tiny": 2629,
      "breasts": 2630,
      "decided": 2631,
      "Fun": 2632,
      "Gen": 2633,
      "Sup": 2634,
      "dar": 2635,
      "dry": 2636,
      "fac": 2637,
      "lay": 2638,
      "mit": 2639,
      "thro": 2640,
      "tom": 2641,
      "icing": 2642,
      "icked": 2643,
      "seum": 2644,
      "save": 2645,
      "chest": 2646,
      "comput": 2647,
      "museum": 2648,
      "asting": 2649,
      "single": 2650,
      "pering": 2651,
      "shopping": 2652,
      "white": 2653,
      "switch": 2654,
      "Buff": 2655,
      "Absolutely": 2656,
      "Russ": 2657,
      "yesterday": 2658,
      "Still": 2659,
      "ahead": 2660,
      "daughter": 2661,
      "ech": 2662,
      "fer": 2663,
      "fut": 2664,
      "gro": 2665,
      "hook": 2666,
      "ray": 2667,
      "tough": 2668,
      "wro": 2669,
      "rect": 2670,
      "stran": 2671,
      "leontolog": 2672,
      "oooo": 2673,
      "notice": 2674,
      "uring": 2675,
      "wouldve": 2676,
      "bigger": 2677,
      "swear": 2678,
      "dinosaur": 2679,
      "Someone": 2680,
      "favorite": 2681,
      "WHERE": 2682,
      "Porsche": 2683,
      "Buffay": 2684,
      "wrote": 2685,
      "Back": 2686,
      "Sco": 2687,
      "flight": 2688,
      "gan": 2689,
      "ience": 2690,
      "wat": 2691,
      "zie": 2692,
      "ino": 2693,
      "goin": 2694,
      "col": 2695,
      "guit": 2696,
      "uni": 2697,
      "romantic": 2698,
      "prep": 2699,
      "Uhm": 2700,
      "cilia": 2701,
      "names": 2702,
      "viewer": 2703,
      "speech": 2704,
      "changed": 2705,
      "questions": 2706,
      "slams": 2707,
      "packing": 2708,
      "clim": 2709,
      "Check": 2710,
      "Cecilia": 2711,
      "Teacher": 2712,
      "credit": 2713,
      "Apartment": 2714,
      "Les": 2715,
      "cas": 2716,
      "dump": 2717,
      "pour": 2718,
      "rush": 2719,
      "vi": 2720,
      "heal": 2721,
      "ana": 2722,
      "int": 2723,
      "acc": 2724,
      "known": 2725,
      "These": 2726,
      "ching": 2727,
      "waitress": 2728,
      "happening": 2729,
      "anging": 2730,
      "helping": 2731,
      "crap": 2732,
      "Judy": 2733,
      "cookie": 2734,
      "certain": 2735,
      "follows": 2736,
      "instead": 2737,
      "possible": 2738,
      "appreciate": 2739,
      "Congrat": 2740,
      "computer": 2741,
      "guitar": 2742,
      "Fri": 2743,
      "From": 2744,
      "Little": 2745,
      "OO": 2746,
      "SUS": 2747,
      "Ton": 2748,
      "Yay": 2749,
      "ctive": 2750,
      "dist": 2751,
      "lan": 2752,
      "loe": 2753,
      "rr": 2754,
      "twenty": 2755,
      "toast": 2756,
      "acked": 2757,
      "hoping": 2758,
      "ellent": 2759,
      "hie": 2760,
      "...(": 2761,
      "heres": 2762,
      "tired": 2763,
      "Ital": 2764,
      "deli": 2765,
      "igno": 2766,
      "tele": 2767,
      "grade": 2768,
      "played": 2769,
      "Chloe": 2770,
      "disappoint": 2771,
      "Three": 2772,
      "breaking": 2773,
      "bowl": 2774,
      "norm": 2775,
      "15": 2776,
      "Fin": 2777,
      "Lives": 2778,
      "OR": 2779,
      "Stu": 2780,
      "foo": 2781,
      "fly": 2782,
      "gor": 2783,
      "pin": 2784,
      "hearing": 2785,
      "anda": 2786,
      "stage": 2787,
      "vel": 2788,
      "ham": 2789,
      "alous": 2790,
      "hoto": 2791,
      "antly": 2792,
      "rooms": 2793,
      "endy": 2794,
      "werent": 2795,
      "suck": 2796,
      "rather": 2797,
      "train": 2798,
      "picking": 2799,
      "airport": 2800,
      "throwing": 2801,
      "pauses": 2802,
      "steal": 2803,
      "LLY": 2804,
      "embarrassed": 2805,
      "basket": 2806,
      "Chip": 2807,
      "future": 2808,
      "health": 2809,
      "accident": 2810,
      "Congratulations": 2811,
      "By": 2812,
      "Lu": 2813,
      "MI": 2814,
      "Way": 2815,
      "Wendy": 2816,
      "ado": 2817,
      "ears": 2818,
      "none": 2819,
      "opp": 2820,
      "ped": 2821,
      "pup": 2822,
      "pet": 2823,
      "risten": 2824,
      "atten": 2825,
      "beat": 2826,
      "stea": 2827,
      "leans": 2828,
      "vest": 2829,
      "stor": 2830,
      "stomach": 2831,
      "reads": 2832,
      "taken": 2833,
      "group": 2834,
      "Although": 2835,
      "Sees": 2836,
      "harder": 2837,
      "ladies": 2838,
      "jealous": 2839,
      "jokes": 2840,
      "spot": 2841,
      "cuss": 2842,
      "divorce": 2843,
      "ibly": 2844,
      "Vegas": 2845,
      "Ad": 2846,
      "Tul": 2847,
      "bike": 2848,
      "fle": 2849,
      "fif": 2850,
      "las": 2851,
      "ris": 2852,
      "nother": 2853,
      "tery": 2854,
      "mov": 2855,
      "motions": 2856,
      "til": 2857,
      "unless": 2858,
      "offic": 2859,
      "goodbye": 2860,
      "ility": 2861,
      "muff": 2862,
      "propose": 2863,
      "needed": 2864,
      "Sebast": 2865,
      "Benjam": 2866,
      "dude": 2867,
      "broken": 2868,
      "apparently": 2869,
      "puzz": 2870,
      "invited": 2871,
      "interested": 2872,
      "divorced": 2873,
      "drawer": 2874,
      "whispering": 2875,
      "calm": 2876,
      "imagine": 2877,
      "empty": 2878,
      "Tulsa": 2879,
      "Sebastian": 2880,
      "Benjamin": 2881,
      "!?": 2882,
      "Another": 2883,
      "II": 2884,
      "Pre": 2885,
      "UN": 2886,
      "ather": 2887,
      "bon": 2888,
      "fan": 2889,
      "ky": 2890,
      "non": 2891,
      "swi": 2892,
      "treat": 2893,
      "wake": 2894,
      "towel": 2895,
      "issa": 2896,
      "meat": 2897,
      "sel": 2898,
      "sets": 2899,
      "Youve": 2900,
      "gun": 2901,
      "somewhere": 2902,
      "bother": 2903,
      "exper": 2904,
      "ield": 2905,
      "checks": 2906,
      "tears": 2907,
      "shouldn": 2908,
      "grap": 2909,
      "male": 2910,
      "rules": 2911,
      "Everything": 2912,
      "bbing": 2913,
      "paying": 2914,
      "smoking": 2915,
      "Amanda": 2916,
      "paid": 2917,
      "Parker": 2918,
      "football": 2919,
      "team": 2920,
      "Melissa": 2921,
      "club": 2922,
      "Turns": 2923,
      "attention": 2924,
      "First": 2925,
      "Jr": 2926,
      "Kristen": 2927,
      "RY": 2928,
      "Say": 2929,
      "Tele": 2930,
      "fic": 2931,
      "ip": 2932,
      "main": 2933,
      "sort": 2934,
      "zer": 2935,
      "resu": 2936,
      "lli": 2937,
      "isa": 2938,
      "gestu": 2939,
      "neither": 2940,
      "worth": 2941,
      "ounds": 2942,
      "cons": 2943,
      "raise": 2944,
      "Real": 2945,
      "closet": 2946,
      "dia": 2947,
      "discuss": 2948,
      "boys": 2949,
      "lived": 2950,
      "000": 2951,
      "passion": 2952,
      "park": 2953,
      "drive": 2954,
      "charac": 2955,
      "ptionist": 2956,
      "silence": 2957,
      "sarcastic": 2958,
      "truth": 2959,
      "cigarette": 2960,
      "Office": 2961,
      "throat": 2962,
      "Leslie": 2963,
      "BO": 2964,
      "Ethan": 2965,
      "Edd": 2966,
      "burn": 2967,
      "double": 2968,
      "faces": 2969,
      "tran": 2970,
      "return": 2971,
      "eral": 2972,
      "beep": 2973,
      "cow": 2974,
      "dear": 2975,
      "depressed": 2976,
      "downstairs": 2977,
      "tem": 2978,
      "fold": 2979,
      "lesbian": 2980,
      "drinks": 2981,
      "flashback": 2982,
      "invite": 2983,
      "speaking": 2984,
      "large": 2985,
      "jumping": 2986,
      "quietly": 2987,
      "Interviewer": 2988,
      "Suddenly": 2989,
      "Hangs": 2990,
      "pillow": 2991,
      "Eddie": 2992,
      "Con": 2993,
      "Cook": 2994,
      "Chan": 2995,
      "Kn": 2996,
      "Nooo": 2997,
      "ax": 2998,
      "bun": 2999,
      "caught": 3000,
      "damn": 3001,
      "hood": 3002,
      "kn": 3003,
      "owed": 3004,
      "pur": 3005,
      "pig": 3006,
      "pair": 3007,
      "wing": 3008,
      "thin": 3009,
      "thous": 3010,
      "ists": 3011,
      "beach": 3012,
      "ens": 3013,
      "handle": 3014,
      "allowed": 3015,
      "upstairs": 3016,
      "hion": 3017,
      "ndry": 3018,
      "copy": 3019,
      "tight": 3020,
      "places": 3021,
      "weren": 3022,
      "quet": 3023,
      "ROL": 3024,
      "Rest": 3025,
      "CAROL": 3026,
      "imme": 3027,
      "ummer": 3028,
      "situation": 3029,
      "knocking": 3030,
      "crush": 3031,
      "share": 3032,
      "borrow": 3033,
      "cheese": 3034,
      "approaches": 3035,
      "juice": 3036,
      "ridicul": 3037,
      "Outside": 3038,
      "GREENE": 3039,
      "Silver": 3040,
      "Italian": 3041,
      "ridiculous": 3042,
      ",\"": 3043,
      "12": 3044,
      "Story": 3045,
      "dirty": 3046,
      "fur": 3047,
      "field": 3048,
      "wind": 3049,
      "anim": 3050,
      "reco": 3051,
      "ache": 3052,
      "ense": 3053,
      "sear": 3054,
      "kes": 3055,
      "unbelievable": 3056,
      "apers": 3057,
      "Sop": 3058,
      "dered": 3059,
      "sucks": 3060,
      "mug": 3061,
      "produ": 3062,
      "ized": 3063,
      "realise": 3064,
      "shop": 3065,
      "super": 3066,
      "Something": 3067,
      "cooking": 3068,
      "drop": 3069,
      "People": 3070,
      "Earl": 3071,
      "iggles": 3072,
      "Teleplay": 3073,
      "Bl": 3074,
      "Bri": 3075,
      "CO": 3076,
      "Casting": 3077,
      "Oooh": 3078,
      "Pass": 3079,
      "Tic": 3080,
      "ahh": 3081,
      "bac": 3082,
      "blo": 3083,
      "eth": 3084,
      "pun": 3085,
      "sun": 3086,
      "spl": 3087,
      "vac": 3088,
      "reaches": 3089,
      "lob": 3090,
      "ower": 3091,
      "agent": 3092,
      "izes": 3093,
      "fied": 3094,
      "catches": 3095,
      "famili": 3096,
      "nivers": 3097,
      "vision": 3098,
      "twice": 3099,
      "bottom": 3100,
      "million": 3101,
      "disappointed": 3102,
      "Cha": 3103,
      "MY": 3104,
      "Mat": 3105,
      "May": 3106,
      "OP": 3107,
      "Sits": 3108,
      "Wed": 3109,
      "bum": 3110,
      "cting": 3111,
      "ded": 3112,
      "egg": 3113,
      "fas": 3114,
      "tch": 3115,
      "tree": 3116,
      "ining": 3117,
      "rend": 3118,
      "regu": 3119,
      "ising": 3120,
      "vered": 3121,
      "soap": 3122,
      "lip": 3123,
      "ges": 3124,
      "wild": 3125,
      "robe": 3126,
      "forward": 3127,
      "uncomfortable": 3128,
      "post": 3129,
      "lovely": 3130,
      "stopping": 3131,
      "ular": 3132,
      "letter": 3133,
      "rows": 3134,
      "aching": 3135,
      "written": 3136,
      "cares": 3137,
      "exciting": 3138,
      "chairs": 3139,
      "Hot": 3140,
      "swing": 3141,
      "lines": 3142,
      "screams": 3143,
      "Only": 3144,
      "finishing": 3145,
      "company": 3146,
      "garbage": 3147,
      "director": 3148,
      "freaked": 3149,
      "waves": 3150,
      "normal": 3151,
      "selves": 3152,
      "Fl": 3153,
      "Ken": 3154,
      "Lenn": 3155,
      "Mmm": 3156,
      "cir": 3157,
      "photo": 3158,
      "sball": 3159,
      "war": 3160,
      "wise": 3161,
      "ount": 3162,
      "inger": 3163,
      "ison": 3164,
      "isle": 3165,
      "ara": 3166,
      "arry": 3167,
      "Phoebs": 3168,
      "rip": 3169,
      "holi": 3170,
      "area": 3171,
      "shell": 3172,
      "endant": 3173,
      "deep": 3174,
      "mention": 3175,
      "honest": 3176,
      "teacher": 3177,
      "stole": 3178,
      "taste": 3179,
      "tray": 3180,
      "trust": 3181,
      "newsp": 3182,
      "laundry": 3183,
      "closed": 3184,
      "Mary": 3185,
      "brain": 3186,
      "apped": 3187,
      "Molly": 3188,
      "bags": 3189,
      "mouths": 3190,
      "smells": 3191,
      "Grand": 3192,
      "ITS": 3193,
      "steps": 3194,
      "Unless": 3195,
      "stripper": 3196,
      "BULLY": 3197,
      "engaged": 3198,
      "Damnit": 3199,
      "Tommy": 3200,
      "decision": 3201,
      "Gene": 3202,
      "Knicks": 3203,
      "Lennart": 3204,
      "Sme": 3205,
      "Van": 3206,
      "ilet": 3207,
      "lit": 3208,
      "lic": 3209,
      "pink": 3210,
      "round": 3211,
      "sat": 3212,
      "soo": 3213,
      "rees": 3214,
      "remo": 3215,
      "ative": 3216,
      "tomer": 3217,
      "itll": 3218,
      "asure": 3219,
      "knowing": 3220,
      "ads": 3221,
      "covered": 3222,
      "appe": 3223,
      "agne": 3224,
      "plic": 3225,
      "dest": 3226,
      "death": 3227,
      "que": 3228,
      "process": 3229,
      "Rece": 3230,
      "rench": 3231,
      "cuts": 3232,
      "decides": 3233,
      "numbers": 3234,
      "realized": 3235,
      "paleontolog": 3236,
      "busy": 3237,
      "formation": 3238,
      "blah": 3239,
      "Engl": 3240,
      "ruined": 3241,
      "Brit": 3242,
      "apologize": 3243,
      "creep": 3244,
      "foosball": 3245,
      "thousand": 3246,
      "Sophie": 3247,
      "Ticket": 3248,
      "AL": 3249,
      "BI": 3250,
      "Cat": 3251,
      "City": 3252,
      "DR": 3253,
      "Eww": 3254,
      "Enter": 3255,
      "French": 3256,
      "Jess": 3257,
      "Mill": 3258,
      "Nancy": 3259,
      "Put": 3260,
      "Val": 3261,
      "Zack": 3262,
      "cing": 3263,
      "eh": 3264,
      "ii": 3265,
      "pal": 3266,
      "rac": 3267,
      "toilet": 3268,
      "isses": 3269,
      "justI": 3270,
      "backs": 3271,
      "inese": 3272,
      "suit": 3273,
      "dying": 3274,
      "tast": 3275,
      "realises": 3276,
      "acted": 3277,
      "shock": 3278,
      "Erin": 3279,
      "Guess": 3280,
      "script": 3281,
      "Laura": 3282,
      "RED": 3283,
      "corner": 3284,
      "choice": 3285,
      "cleaning": 3286,
      "continues": 3287,
      "Play": 3288,
      "Plus": 3289,
      "clearly": 3290,
      "Love": 3291,
      "burst": 3292,
      "snea": 3293,
      "Help": 3294,
      "engagement": 3295,
      "Ready": 3296,
      "Morning": 3297,
      "candles": 3298,
      "Those": 3299,
      "Restaurant": 3300,
      "niversary": 3301,
      "Agent": 3302,
      "Even": 3303,
      "Fire": 3304,
      "Larry": 3305,
      "Rob": 3306,
      "ca": 3307,
      "cate": 3308,
      "fancy": 3309,
      "hid": 3310,
      "lab": 3311,
      "sim": 3312,
      "tra": 3313,
      "yl": 3314,
      "recor": 3315,
      "ston": 3316,
      "ordered": 3317,
      "lec": 3318,
      "...)": 3319,
      "Young": 3320,
      "terri": 3321,
      "costu": 3322,
      "commercial": 3323,
      "sometime": 3324,
      "shout": 3325,
      "exam": 3326,
      "happily": 3327,
      "spray": 3328,
      "scr": 3329,
      "plays": 3330,
      "Chinese": 3331,
      "cially": 3332,
      "Isn": 3333,
      "named": 3334,
      "longer": 3335,
      "brace": 3336,
      "staying": 3337,
      "books": 3338,
      "famous": 3339,
      "Forget": 3340,
      "born": 3341,
      "Daddy": 3342,
      "birds": 3343,
      "Michell": 3344,
      "mirror": 3345,
      "begins": 3346,
      "Ell": 3347,
      "GO": 3348,
      "Lea": 3349,
      "MO": 3350,
      "fool": 3351,
      "iled": 3352,
      "mont": 3353,
      "nu": 3354,
      "ys": 3355,
      "intro": 3356,
      "information": 3357,
      "ering": 3358,
      "begin": 3359,
      "stem": 3360,
      "fort": 3361,
      "changing": 3362,
      "shr": 3363,
      "concer": 3364,
      "tux": 3365,
      "quar": 3366,
      "walked": 3367,
      "space": 3368,
      "anger": 3369,
      "dial": 3370,
      "rub": 3371,
      "deser": 3372,
      "honeymoon": 3373,
      "sighs": 3374,
      "personal": 3375,
      "pression": 3376,
      "falling": 3377,
      "invol": 3378,
      "Amer": 3379,
      "covering": 3380,
      "About": 3381,
      "gentle": 3382,
      "disgusted": 3383,
      "pushing": 3384,
      "gym": 3385,
      "Scott": 3386,
      "character": 3387,
      "regular": 3388,
      "British": 3389,
      "Jessica": 3390,
      "Michelle": 3391,
      "introdu": 3392,
      ")...": 3393,
      "App": 3394,
      "Bet": 3395,
      "CRED": 3396,
      "Fe": 3397,
      "Jason": 3398,
      "Kisses": 3399,
      "Last": 3400,
      "Ms": 3401,
      "Naked": 3402,
      "Ron": 3403,
      "Si": 3404,
      "bat": 3405,
      "during": 3406,
      "fil": 3407,
      "jer": 3408,
      "lamp": 3409,
      "oid": 3410,
      "pel": 3411,
      "tissu": 3412,
      "vator": 3413,
      "relie": 3414,
      "bel": 3415,
      "state": 3416,
      "velo": 3417,
      "alive": 3418,
      "sold": 3419,
      "ford": 3420,
      "advice": 3421,
      "Nobody": 3422,
      "neigh": 3423,
      "tip": 3424,
      "ties": 3425,
      "umbs": 3426,
      "shoo": 3427,
      "bles": 3428,
      "trash": 3429,
      "blan": 3430,
      "Motions": 3431,
      "planning": 3432,
      "changes": 3433,
      "Katie": 3434,
      "killed": 3435,
      "Shut": 3436,
      "Helen": 3437,
      "sofa": 3438,
      "Finally": 3439,
      "bachel": 3440,
      "remote": 3441,
      "CREDITS": 3442,
      "!)": 3443,
      "Call": 3444,
      "Cal": 3445,
      "Kind": 3446,
      "Mal": 3447,
      "Sto": 3448,
      "Satur": 3449,
      "Wor": 3450,
      "ey": 3451,
      "fu": 3452,
      "fant": 3453,
      "gre": 3454,
      "gly": 3455,
      "grown": 3456,
      "kers": 3457,
      "map": 3458,
      "sive": 3459,
      "warm": 3460,
      "respe": 3461,
      "theart": 3462,
      "thirty": 3463,
      "thumbs": 3464,
      "become": 3465,
      "lex": 3466,
      ".....": 3467,
      "asy": 3468,
      "forth": 3469,
      "antically": 3470,
      "feed": 3471,
      "ference": 3472,
      "els": 3473,
      "department": 3474,
      "safe": 3475,
      "exit": 3476,
      "exha": 3477,
      "Remor": 3478,
      "joins": 3479,
      "Alan": 3480,
      "career": 3481,
      "ballo": 3482,
      "frantically": 3483,
      "difference": 3484,
      "bringing": 3485,
      "sisters": 3486,
      "dropped": 3487,
      "nipp": 3488,
      "attack": 3489,
      "boots": 3490,
      "Sales": 3491,
      "responsi": 3492,
      "Professor": 3493,
      "storms": 3494,
      "movies": 3495,
      "Saturday": 3496,
      "Remoray": 3497,
      "Mis": 3498,
      "Puts": 3499,
      "Vic": 3500,
      "Whe": 3501,
      "base": 3502,
      "cts": 3503,
      "cous": 3504,
      "gers": 3505,
      "oc": 3506,
      "size": 3507,
      "tone": 3508,
      "anniversary": 3509,
      "action": 3510,
      "oose": 3511,
      "hates": 3512,
      "esc": 3513,
      "ades": 3514,
      "nel": 3515,
      "center": 3516,
      "ours": 3517,
      "episode": 3518,
      "tech": 3519,
      "Howard": 3520,
      "ringing": 3521,
      "Gellers": 3522,
      "Isnt": 3523,
      "given": 3524,
      "insane": 3525,
      "daddy": 3526,
      "missing": 3527,
      "REA": 3528,
      "awful": 3529,
      "ject": 3530,
      "driving": 3531,
      "promised": 3532,
      "spoon": 3533,
      "pretending": 3534,
      "sarcastically": 3535,
      "twins": 3536,
      "expect": 3537,
      "Super": 3538,
      "SUSIE": 3539,
      "delivery": 3540,
      "Brian": 3541,
      "16": 3542,
      "Aur": 3543,
      "Cait": 3544,
      "Cass": 3545,
      "ES": 3546,
      "FRI": 3547,
      "Ge": 3548,
      "Har": 3549,
      "Mc": 3550,
      "Ne": 3551,
      "Ooo": 3552,
      "Pat": 3553,
      "Pret": 3554,
      "Swee": 3555,
      "Shows": 3556,
      "aisle": 3557,
      "bare": 3558,
      "dies": 3559,
      "dumb": 3560,
      "nine": 3561,
      "nuts": 3562,
      "snow": 3563,
      "val": 3564,
      "erg": 3565,
      "threw": 3566,
      "ishes": 3567,
      "hael": 3568,
      "wet": 3569,
      "lies": 3570,
      "road": 3571,
      "hers": 3572,
      "hip": 3573,
      "net": 3574,
      "usually": 3575,
      "Gold": 3576,
      "teeth": 3577,
      "closing": 3578,
      "sweat": 3579,
      "ruit": 3580,
      "careful": 3581,
      "Except": 3582,
      "Heres": 3583,
      "desper": 3584,
      "diff": 3585,
      "ENING": 3586,
      "eez": 3587,
      "system": 3588,
      "potat": 3589,
      "Michael": 3590,
      "Lydia": 3591,
      "strange": 3592,
      "MIKE": 3593,
      "OPENING": 3594,
      "newspaper": 3595,
      "Receptionist": 3596,
      "Valent": 3597,
      "Aurora": 3598,
      "Caitlin": 3599,
      "',": 3600,
      "Cool": 3601,
      "Ind": 3602,
      "Nah": 3603,
      "Part": 3604,
      "Sha": 3605,
      "TER": 3606,
      "Ugly": 3607,
      "Wan": 3608,
      "Woo": 3609,
      "ered": 3610,
      "gra": 3611,
      "jor": 3612,
      "oven": 3613,
      "poe": 3614,
      "remind": 3615,
      "bes": 3616,
      "ities": 3617,
      "ican": 3618,
      "noon": 3619,
      "lied": 3620,
      "hop": 3621,
      "gosh": 3622,
      "ups": 3623,
      "Youll": 3624,
      "gum": 3625,
      "urity": 3626,
      "tual": 3627,
      "letting": 3628,
      "trick": 3629,
      "type": 3630,
      "Whos": 3631,
      "carry": 3632,
      "rushes": 3633,
      "Street": 3634,
      "giant": 3635,
      "hurts": 3636,
      "ttes": 3637,
      "horror": 3638,
      "doctors": 3639,
      "rolls": 3640,
      "bride": 3641,
      "brides": 3642,
      "fighting": 3643,
      "Should": 3644,
      "elevator": 3645,
      "country": 3646,
      "charge": 3647,
      "Paris": 3648,
      "human": 3649,
      "BUR": 3650,
      "soft": 3651,
      "knee": 3652,
      "dark": 3653,
      "RYAN": 3654,
      "split": 3655,
      "familiar": 3656,
      "fashion": 3657,
      "Smelly": 3658,
      "Cassie": 3659,
      "FRIEND": 3660,
      "25": 3661,
      "200": 3662,
      "AD": 3663,
      "Cli": 3664,
      "Ginger": 3665,
      "Picks": 3666,
      "Sher": 3667,
      "Tr": 3668,
      "Ted": 3669,
      "Vince": 3670,
      "Wel": 3671,
      "coo": 3672,
      "cart": 3673,
      "dun": 3674,
      "frea": 3675,
      "gri": 3676,
      "gain": 3677,
      "hides": 3678,
      "pool": 3679,
      "punch": 3680,
      "spre": 3681,
      "silly": 3682,
      "tall": 3683,
      "uro": 3684,
      "vir": 3685,
      "accept": 3686,
      "enger": 3687,
      "dom": 3688,
      "ution": 3689,
      "libr": 3690,
      "Whatever": 3691,
      "ented": 3692,
      "background": 3693,
      "leather": 3694,
      "def": 3695,
      "tood": 3696,
      "hasnt": 3697,
      "scary": 3698,
      "mix": 3699,
      "biggest": 3700,
      "buzz": 3701,
      "THER": 3702,
      "older": 3703,
      "sexual": 3704,
      "keeping": 3705,
      "support": 3706,
      "shaking": 3707,
      "speed": 3708,
      "flat": 3709,
      "correct": 3710,
      "invit": 3711,
      "gener": 3712,
      "learned": 3713,
      "Serge": 3714,
      "Gives": 3715,
      "loudly": 3716,
      "delic": 3717,
      "emergency": 3718,
      "hungry": 3719,
      "Realizes": 3720,
      "Wedding": 3721,
      "blanket": 3722,
      "Pretty": 3723,
      "\")": 3724,
      ".}": 3725,
      "AA": 3726,
      "AY": 3727,
      "Alex": 3728,
      "BREA": 3729,
      "Cher": 3730,
      "Ep": 3731,
      "King": 3732,
      "Lad": 3733,
      "Never": 3734,
      "Nina": 3735,
      "Next": 3736,
      "Thur": 3737,
      "ban": 3738,
      "bout": 3739,
      "blau": 3740,
      "green": 3741,
      "iv": 3742,
      "mic": 3743,
      "ners": 3744,
      "od": 3745,
      "pant": 3746,
      "power": 3747,
      "roof": 3748,
      "sou": 3749,
      "sor": 3750,
      "sau": 3751,
      "soup": 3752,
      "uck": 3753,
      "vate": 3754,
      "inet": 3755,
      "ond": 3756,
      "attrac": 3757,
      "bend": 3758,
      "sess": 3759,
      "handing": 3760,
      "allow": 3761,
      "aside": 3762,
      "vert": 3763,
      "abo": 3764,
      "locked": 3765,
      "cost": 3766,
      "plastic": 3767,
      "ently": 3768,
      "dess": 3769,
      "poor": 3770,
      "shoulders": 3771,
      "ously": 3772,
      "spill": 3773,
      "imit": 3774,
      "evening": 3775,
      "writ": 3776,
      "wins": 3777,
      "dressing": 3778,
      "Pot": 3779,
      "Roy": 3780,
      "decor": 3781,
      "security": 3782,
      "passed": 3783,
      "aaa": 3784,
      "cups": 3785,
      "messages": 3786,
      "nervously": 3787,
      "Wayne": 3788,
      "experience": 3789,
      "lecture": 3790,
      "costume": 3791,
      "Ellen": 3792,
      "neighbor": 3793,
      "difficul": 3794,
      "attractive": 3795,
      "AM": 3796,
      "Air": 3797,
      "Di": 3798,
      "Four": 3799,
      "Jose": 3800,
      "Ke": 3801,
      "Kno": 3802,
      "Op": 3803,
      "Rel": 3804,
      "Too": 3805,
      "ak": 3806,
      "bang": 3807,
      "bank": 3808,
      "ggest": 3809,
      "mps": 3810,
      "sna": 3811,
      "sooo": 3812,
      "tap": 3813,
      "tour": 3814,
      "vin": 3815,
      "yle": 3816,
      "theme": 3817,
      "thetic": 3818,
      "ature": 3819,
      "acing": 3820,
      "actual": 3821,
      "nod": 3822,
      "elly": 3823,
      "noticing": 3824,
      "entertain": 3825,
      "whose": 3826,
      "woah": 3827,
      "suggest": 3828,
      "mmm": 3829,
      "everywhere": 3830,
      "hasing": 3831,
      "ages": 3832,
      "bucket": 3833,
      "final": 3834,
      "gling": 3835,
      "secake": 3836,
      "champ": 3837,
      "Somebody": 3838,
      "cheesecake": 3839,
      "seats": 3840,
      "following": 3841,
      "flir": 3842,
      "judge": 3843,
      "priate": 3844,
      "Hallway": 3845,
      "annoying": 3846,
      "watches": 3847,
      "puppy": 3848,
      "muffin": 3849,
      "search": 3850,
      "barely": 3851,
      "dunno": 3852,
      "Sergei": 3853,
      "BREAK": 3854,
      "Joseph": 3855,
      "Billy": 3856,
      "CI": 3857,
      "Cr": 3858,
      "Coffee": 3859,
      "Ele": 3860,
      "Fat": 3861,
      "Five": 3862,
      "HH": 3863,
      "LO": 3864,
      "MM": 3865,
      "Make": 3866,
      "Mart": 3867,
      "Shh": 3868,
      "Stor": 3869,
      "Vo": 3870,
      "Yell": 3871,
      "YOU": 3872,
      "bump": 3873,
      "cro": 3874,
      "cakes": 3875,
      "emotion": 3876,
      "fruit": 3877,
      "giggles": 3878,
      "hitting": 3879,
      "ns": 3880,
      "nic": 3881,
      "nas": 3882,
      "pit": 3883,
      "phy": 3884,
      "pies": 3885,
      "rout": 3886,
      "tan": 3887,
      "ange": 3888,
      "ants": 3889,
      "reme": 3890,
      "repe": 3891,
      "ero": 3892,
      "iced": 3893,
      "ener": 3894,
      "helps": 3895,
      "Monday": 3896,
      "weight": 3897,
      "lio": 3898,
      "outta": 3899,
      "colate": 3900,
      "history": 3901,
      "guard": 3902,
      "ife": 3903,
      "ager": 3904,
      "itty": 3905,
      "ional": 3906,
      "sudden": 3907,
      "talks": 3908,
      "contest": 3909,
      "doors": 3910,
      "aster": 3911,
      "grad": 3912,
      "student": 3913,
      "tables": 3914,
      "profess": 3915,
      "professor": 3916,
      "rubbing": 3917,
      "ortun": 3918,
      "Carl": 3919,
      "brush": 3920,
      "clears": 3921,
      "brown": 3922,
      "simu": 3923,
      "lately": 3924,
      "pulling": 3925,
      "brings": 3926,
      "Ahhh": 3927,
      "boring": 3928,
      "appropriate": 3929,
      "salad": 3930,
      "compet": 3931,
      "embarrassing": 3932,
      "blame": 3933,
      "cigarettes": 3934,
      "honor": 3935,
      "Luisa": 3936,
      "recogn": 3937,
      "Flashback": 3938,
      "Mischa": 3939,
      "Cliff": 3940,
      "Cheryl": 3941,
      "Thurs": 3942,
      "flirting": 3943,
      "\"?": 3944,
      "13": 3945,
      "18": 3946,
      "Bes": 3947,
      "Brend": 3948,
      "FBO": 3949,
      "Han": 3950,
      "Hard": 3951,
      "Mins": 3952,
      "Makes": 3953,
      "RU": 3954,
      "Ray": 3955,
      "Since": 3956,
      "Tal": 3957,
      "Terry": 3958,
      "War": 3959,
      "Whi": 3960,
      "Watch": 3961,
      "Ye": 3962,
      "Year": 3963,
      "bright": 3964,
      "crow": 3965,
      "dig": 3966,
      "ga": 3967,
      "gate": 3968,
      "lon": 3969,
      "match": 3970,
      "pad": 3971,
      "ron": 3972,
      "woo": 3973,
      "heat": 3974,
      "reach": 3975,
      "removes": 3976,
      "rehears": 3977,
      "sticking": 3978,
      "orts": 3979,
      "rowed": 3980,
      "lots": 3981,
      "gettin": 3982,
      "appl": 3983,
      "amused": 3984,
      "Andrew": 3985,
      "plus": 3986,
      "iceman": 3987,
      "shoot": 3988,
      "peep": 3989,
      "suc": 3990,
      "offer": 3991,
      "iest": 3992,
      "contrac": 3993,
      "raises": 3994,
      "chedu": 3995,
      "berg": 3996,
      "opened": 3997,
      "bub": 3998,
      "sweep": 3999,
      "Step": 4000,
      "afternoon": 4001,
      "planned": 4002,
      "ances": 4003,
      "Julio": 4004,
      "Anything": 4005,
      "easier": 4006,
      "brief": 4007,
      "favour": 4008,
      "skin": 4009,
      "whispers": 4010,
      "breaks": 4011,
      "subway": 4012,
      "blows": 4013,
      "imagin": 4014,
      "filled": 4015,
      "Philli": 4016,
      "Minister": 4017,
      "annoyed": 4018,
      "consider": 4019,
      "bunny": 4020,
      "holiday": 4021,
      "Apparently": 4022,
      "Ronni": 4023,
      "techn": 4024,
      "Welcome": 4025,
      "difficult": 4026,
      "Besides": 4027,
      "FBOB": 4028,
      "Minsk": 4029,
      "Phillips": 4030,
      "100": 4031,
      "Brown": 4032,
      "Cam": 4033,
      "Ew": 4034,
      "Eve": 4035,
      "Hm": 4036,
      "Hill": 4037,
      "Jen": 4038,
      "Mit": 4039,
      "Squ": 4040,
      "Shhh": 4041,
      "bug": 4042,
      "cul": 4043,
      "dates": 4044,
      "fts": 4045,
      "fra": 4046,
      "mum": 4047,
      "nan": 4048,
      "pans": 4049,
      "papers": 4050,
      "rum": 4051,
      "sno": 4052,
      "slight": 4053,
      "taught": 4054,
      "uk": 4055,
      "uses": 4056,
      "van": 4057,
      "vol": 4058,
      "wood": 4059,
      "yo": 4060,
      "yy": 4061,
      "yan": 4062,
      "rets": 4063,
      "remem": 4064,
      "ando": 4065,
      "andro": 4066,
      "bear": 4067,
      "ached": 4068,
      "enth": 4069,
      "arian": 4070,
      "lerk": 4071,
      "lift": 4072,
      "geon": 4073,
      "eds": 4074,
      "rock": 4075,
      "adv": 4076,
      "adul": 4077,
      "coll": 4078,
      "neath": 4079,
      "ppers": 4080,
      "poker": 4081,
      "expen": 4082,
      "cont": 4083,
      "conne": 4084,
      "ERICA": 4085,
      "ERCI": 4086,
      "psy": 4087,
      "spin": 4088,
      "spell": 4089,
      "Hows": 4090,
      "trade": 4091,
      "thoughts": 4092,
      "avail": 4093,
      "tongue": 4094,
      "rule": 4095,
      "serv": 4096,
      "keeper": 4097,
      "disbelie": 4098,
      "Franz": 4099,
      "suppor": 4100,
      "Charity": 4101,
      "triple": 4102,
      "blood": 4103,
      "blind": 4104,
      "excellent": 4105,
      "crack": 4106,
      "chips": 4107,
      "Woah": 4108,
      "Think": 4109,
      "Thinks": 4110,
      "Throws": 4111,
      "jected": 4112,
      "chocolate": 4113,
      "spending": 4114,
      "Awww": 4115,
      "Max": 4116,
      "pages": 4117,
      "dumped": 4118,
      "certainly": 4119,
      "Tony": 4120,
      "puzzled": 4121,
      "gestures": 4122,
      "COMM": 4123,
      "English": 4124,
      "record": 4125,
      "deserve": 4126,
      "involved": 4127,
      "bridesmaid": 4128,
      "BURKE": 4129,
      "FRIENDS": 4130,
      "Episode": 4131,
      "Keep": 4132,
      "nanny": 4133,
      "ERCIAL": 4134,
      "COMMERCIAL": 4135,
      "17": 4136,
      "CAN": 4137,
      "Din": 4138,
      "Die": 4139,
      "Fake": 4140,
      "Jones": 4141,
      "Nana": 4142,
      "Ori": 4143,
      "Pol": 4144,
      "Rick": 4145,
      "Sing": 4146,
      "aff": 4147,
      "bid": 4148,
      "dam": 4149,
      "fro": 4150,
      "furn": 4151,
      "flu": 4152,
      "nn": 4153,
      "nut": 4154,
      "nts": 4155,
      "plo": 4156,
      "parts": 4157,
      "sus": 4158,
      "vul": 4159,
      "eras": 4160,
      "tomat": 4161,
      "bered": 4162,
      "veget": 4163,
      "weet": 4164,
      "forgive": 4165,
      "aunt": 4166,
      "plant": 4167,
      "seemed": 4168,
      "ending": 4169,
      "shar": 4170,
      "lame": 4171,
      "atest": 4172,
      "couldve": 4173,
      "qual": 4174,
      "ohn": 4175,
      "complic": 4176,
      "scar": 4177,
      "screw": 4178,
      "focus": 4179,
      "mass": 4180,
      "ational": 4181,
      "afford": 4182,
      "earrings": 4183,
      "intercom": 4184,
      "incess": 4185,
      "Roll": 4186,
      "pressure": 4187,
      "stein": 4188,
      "Tries": 4189,
      "parties": 4190,
      "Dana": 4191,
      "buying": 4192,
      "pathetic": 4193,
      "sweetheart": 4194,
      "ginally": 4195,
      "gifts": 4196,
      "direction": 4197,
      "evil": 4198,
      "bastard": 4199,
      "recei": 4200,
      "Reading": 4201,
      "announ": 4202,
      "teaching": 4203,
      "practice": 4204,
      "position": 4205,
      "television": 4206,
      "healthy": 4207,
      "BIG": 4208,
      "Fireman": 4209,
      "jerk": 4210,
      "bachelor": 4211,
      "greatest": 4212,
      "spread": 4213,
      "delicious": 4214,
      "Relax": 4215,
      "Storms": 4216,
      "Franzblau": 4217,
      "Cor": 4218,
      "Dis": 4219,
      "Fo": 4220,
      "Hur": 4221,
      "IR": 4222,
      "Lor": 4223,
      "Las": 4224,
      "Liz": 4225,
      "Pau": 4226,
      "Shan": 4227,
      "VE": 4228,
      "award": 4229,
      "bone": 4230,
      "credits": 4231,
      "chasing": 4232,
      "kicking": 4233,
      "nick": 4234,
      "pats": 4235,
      "packed": 4236,
      "schedu": 4237,
      "tar": 4238,
      "wakes": 4239,
      "zing": 4240,
      "heav": 4241,
      "total": 4242,
      "belly": 4243,
      "stars": 4244,
      "stru": 4245,
      "organ": 4246,
      "season": 4247,
      "hated": 4248,
      "dos": 4249,
      "sock": 4250,
      "ustr": 4251,
      "aby": 4252,
      "ably": 4253,
      "robot": 4254,
      "add": 4255,
      "address": 4256,
      "irt": 4257,
      "audi": 4258,
      "losing": 4259,
      "wash": 4260,
      "ceiling": 4261,
      "agen": 4262,
      "plat": 4263,
      "ender": 4264,
      "tells": 4265,
      "conv": 4266,
      "conference": 4267,
      "hasn": 4268,
      "Cohen": 4269,
      "prove": 4270,
      "ideas": 4271,
      "Reich": 4272,
      "market": 4273,
      "imp": 4274,
      "Chick": 4275,
      "underneath": 4276,
      "mony": 4277,
      "service": 4278,
      "setting": 4279,
      "bling": 4280,
      "grabbing": 4281,
      "descri": 4282,
      "shame": 4283,
      "Whit": 4284,
      "pulled": 4285,
      "hurry": 4286,
      "rolling": 4287,
      "songs": 4288,
      "clip": 4289,
      "slides": 4290,
      "Living": 4291,
      "lawy": 4292,
      "Quick": 4293,
      "Hugsy": 4294,
      "apartments": 4295,
      "hooker": 4296,
      "accidentally": 4297,
      "passionately": 4298,
      "Passenger": 4299,
      "Miller": 4300,
      "fortun": 4301,
      "Kinda": 4302,
      "respect": 4303,
      "dessert": 4304,
      "champagne": 4305,
      "Brenda": 4306,
      "RUSS": 4307,
      "While": 4308,
      "Hillary": 4309,
      "triplets": 4310,
      "complicated": 4311,
      "?'": 4312,
      "?)": 4313,
      "Bow": 4314,
      "Cran": 4315,
      "GE": 4316,
      "Hand": 4317,
      "Int": 4318,
      "Jam": 4319,
      "Jame": 4320,
      "John": 4321,
      "LA": 4322,
      "OW": 4323,
      "Pizza": 4324,
      "Sur": 4325,
      "VER": 4326,
      "cin": 4327,
      "fist": 4328,
      "flying": 4329,
      "ium": 4330,
      "kicked": 4331,
      "lace": 4332,
      "mater": 4333,
      "nies": 4334,
      "shy": 4335,
      "une": 4336,
      "err": 4337,
      "youn": 4338,
      "ital": 4339,
      "iture": 4340,
      "separ": 4341,
      "haps": 4342,
      "hoever": 4343,
      "asmine": 4344,
      "gee": 4345,
      "hire": 4346,
      "choose": 4347,
      "apes": 4348,
      "bored": 4349,
      "cere": 4350,
      "plates": 4351,
      "anywhere": 4352,
      "dejected": 4353,
      "exchange": 4354,
      "Totally": 4355,
      "gram": 4356,
      "trad": 4357,
      "marrying": 4358,
      "impressed": 4359,
      "talkin": 4360,
      "babys": 4361,
      "partner": 4362,
      "assu": 4363,
      "avoid": 4364,
      "diaper": 4365,
      "Aren": 4366,
      "finishes": 4367,
      "More": 4368,
      "mates": 4369,
      "ddle": 4370,
      "secrets": 4371,
      "Sometimes": 4372,
      "Hospital": 4373,
      "dogs": 4374,
      "publ": 4375,
      "awake": 4376,
      "Excellent": 4377,
      "horri": 4378,
      "welve": 4379,
      "inclu": 4380,
      "lley": 4381,
      "perfectly": 4382,
      "ltane": 4383,
      "approaching": 4384,
      "STE": 4385,
      "touching": 4386,
      "charity": 4387,
      "flip": 4388,
      "Atl": 4389,
      "obvious": 4390,
      "customer": 4391,
      "strip": 4392,
      "curtain": 4393,
      "enjoying": 4394,
      "whenever": 4395,
      "celebrate": 4396,
      "facing": 4397,
      "groans": 4398,
      "prepared": 4399,
      "Tonight": 4400,
      "stealing": 4401,
      "Cooking": 4402,
      "bracelet": 4403,
      "Salesman": 4404,
      "cousin": 4405,
      "Harad": 4406,
      "Goldberg": 4407,
      "Valentines": 4408,
      "Wanna": 4409,
      "sauce": 4410,
      "entertainment": 4411,
      "simultane": 4412,
      "Thursday": 4413,
      "expensive": 4414,
      "14": 4415,
      "Brea": 4416,
      "GU": 4417,
      "GER": 4418,
      "Greg": 4419,
      "ID": 4420,
      "IS": 4421,
      "Jim": 4422,
      "Kay": 4423,
      "Krist": 4424,
      "Oop": 4425,
      "Pu": 4426,
      "bou": 4427,
      "cran": 4428,
      "det": 4429,
      "gal": 4430,
      "kicks": 4431,
      "len": 4432,
      "lun": 4433,
      "rad": 4434,
      "sink": 4435,
      "tack": 4436,
      "wast": 4437,
      "ying": 4438,
      "zoo": 4439,
      "reci": 4440,
      "rewed": 4441,
      "atre": 4442,
      "attr": 4443,
      "acle": 4444,
      "ald": 4445,
      "host": 4446,
      "geous": 4447,
      "Hell": 4448,
      "verse": 4449,
      "hired": 4450,
      "neg": 4451,
      "timate": 4452,
      "uncle": 4453,
      "amount": 4454,
      "aging": 4455,
      "ummy": 4456,
      "wanting": 4457,
      "backwards": 4458,
      "ooming": 4459,
      "leased": 4460,
      "mans": 4461,
      "saving": 4462,
      "wore": 4463,
      "ilt": 4464,
      "shouldve": 4465,
      "tail": 4466,
      "scare": 4467,
      "screwed": 4468,
      "grat": 4469,
      "gross": 4470,
      "mimes": 4471,
      "tric": 4472,
      "essa": 4473,
      "hesit": 4474,
      "actly": 4475,
      "perform": 4476,
      "badge": 4477,
      "hugging": 4478,
      "offered": 4479,
      "suppose": 4480,
      "sitive": 4481,
      "Exactly": 4482,
      "tense": 4483,
      "Whoo": 4484,
      ".\")": 4485,
      "moust": 4486,
      "version": 4487,
      "mustve": 4488,
      "slaps": 4489,
      "kills": 4490,
      "touched": 4491,
      "INE": 4492,
      "borrowed": 4493,
      "faster": 4494,
      "painting": 4495,
      "camp": 4496,
      "magic": 4497,
      "boob": 4498,
      "client": 4499,
      "salt": 4500,
      "wallet": 4501,
      "fresh": 4502,
      "wheel": 4503,
      "growing": 4504,
      "candle": 4505,
      "knees": 4506,
      "patient": 4507,
      "Burke": 4508,
      "napkin": 4509,
      "climb": 4510,
      "tempt": 4511,
      "animal": 4512,
      "lobster": 4513,
      "Vanessa": 4514,
      "shrugs": 4515,
      "Helena": 4516,
      "feeding": 4517,
      "responsib": 4518,
      "Sweetie": 4519,
      "library": 4520,
      "above": 4521,
      "crotch": 4522,
      "success": 4523,
      "technically": 4524,
      "frame": 4525,
      "available": 4526,
      "Originally": 4527,
      "furniture": 4528,
      "James": 4529,
      "!'": 4530,
      "-,": 4531,
      "11": 4532,
      "40": 4533,
      "Ass": 4534,
      "Again": 4535,
      "Bits": 4536,
      "CE": 4537,
      "Cop": 4538,
      "Dut": 4539,
      "GR": 4540,
      "Hum": 4541,
      "Iss": 4542,
      "JU": 4543,
      "Kid": 4544,
      "Mad": 4545,
      "Sc": 4546,
      "Sit": 4547,
      "Smo": 4548,
      "TI": 4549,
      "cried": 4550,
      "dea": 4551,
      "ipp": 4552,
      "jar": 4553,
      "mbre": 4554,
      "nin": 4555,
      "pha": 4556,
      "pound": 4557,
      "ric": 4558,
      "ram": 4559,
      "race": 4560,
      "summer": 4561,
      "tat": 4562,
      "trees": 4563,
      "ud": 4564,
      "wide": 4565,
      "invest": 4566,
      "inappropriate": 4567,
      "rer": 4568,
      "attempt": 4569,
      "thumb": 4570,
      "toe": 4571,
      "bey": 4572,
      "station": 4573,
      "ened": 4574,
      "seated": 4575,
      "wever": 4576,
      "asp": 4577,
      "alo": 4578,
      "idence": 4579,
      "gold": 4580,
      "esday": 4581,
      "esandro": 4582,
      "admit": 4583,
      "Note": 4584,
      "loving": 4585,
      "loser": 4586,
      "coin": 4587,
      "model": 4588,
      "thered": 4589,
      "thinkin": 4590,
      "shuts": 4591,
      "Allesandro": 4592,
      "lieve": 4593,
      "congrat": 4594,
      "High": 4595,
      "doorway": 4596,
      "checked": 4597,
      "dya": 4598,
      "friger": 4599,
      "ohh": 4600,
      "complain": 4601,
      "coup": 4602,
      "sperm": 4603,
      "scient": 4604,
      "mim": 4605,
      "berry": 4606,
      "forehead": 4607,
      "izing": 4608,
      "Believe": 4609,
      "tons": 4610,
      "llowed": 4611,
      "serving": 4612,
      "Star": 4613,
      "glaring": 4614,
      "obsess": 4615,
      "crab": 4616,
      "Mee": 4617,
      "Opens": 4618,
      "slut": 4619,
      "Directed": 4620,
      "dollar": 4621,
      "cuff": 4622,
      "attendant": 4623,
      "dancer": 4624,
      "Park": 4625,
      "Ohhhh": 4626,
      "smaller": 4627,
      "slip": 4628,
      "sym": 4629,
      "appointment": 4630,
      "commit": 4631,
      "revealing": 4632,
      "Produ": 4633,
      "Probably": 4634,
      "memories": 4635,
      "Friends": 4636,
      "gorgeous": 4637,
      "Silveri": 4638,
      "animals": 4639,
      "Blooming": 4640,
      "Hotel": 4641,
      "categor": 4642,
      "Leaves": 4643,
      "quarter": 4644,
      "relief": 4645,
      "escape": 4646,
      "Camera": 4647,
      "Mitche": 4648,
      "supportive": 4649,
      "Policeman": 4650,
      "Crane": 4651,
      "simultaneously": 4652,
      "Bitsy": 4653,
      "Issac": 4654,
      "Bloomingda": 4655,
      "\",": 4656,
      ".,": 4657,
      "Bay": 4658,
      "Clau": 4659,
      "Cont": 4660,
      "Dear": 4661,
      "Emp": 4662,
      "Gimme": 4663,
      "HA": 4664,
      "Hor": 4665,
      "Isa": 4666,
      "LIT": 4667,
      "Men": 4668,
      "Mine": 4669,
      "Merry": 4670,
      "Other": 4671,
      "Pri": 4672,
      "Pull": 4673,
      "RAN": 4674,
      "Sch": 4675,
      "Show": 4676,
      "cles": 4677,
      "cru": 4678,
      "gha": 4679,
      "ired": 4680,
      "kah": 4681,
      "lands": 4682,
      "mood": 4683,
      "scen": 4684,
      "twelve": 4685,
      "vil": 4686,
      "viously": 4687,
      "ws": 4688,
      "onora": 4689,
      "rec": 4690,
      "reed": 4691,
      "reserv": 4692,
      "refriger": 4693,
      "stat": 4694,
      "noises": 4695,
      "argu": 4696,
      "sea": 4697,
      "level": 4698,
      "weler": 4699,
      "edbetter": 4700,
      "usted": 4701,
      "ease": 4702,
      "espe": 4703,
      "iron": 4704,
      "nee": 4705,
      "guin": 4706,
      "sheet": 4707,
      "tial": 4708,
      "agreed": 4709,
      "!!!!!": 4710,
      "meaning": 4711,
      "Itll": 4712,
      "pean": 4713,
      "saved": 4714,
      "suitc": 4715,
      "mental": 4716,
      "tub": 4717,
      "makeup": 4718,
      "tered": 4719,
      "quack": 4720,
      "comin": 4721,
      "propo": 4722,
      "ulment": 4723,
      "followed": 4724,
      "phones": 4725,
      "wrapped": 4726,
      "umming": 4727,
      "shots": 4728,
      "showed": 4729,
      "pleasure": 4730,
      "finding": 4731,
      "Stri": 4732,
      "display": 4733,
      "glare": 4734,
      "frustr": 4735,
      "eats": 4736,
      "chain": 4737,
      "chase": 4738,
      "killing": 4739,
      "fourth": 4740,
      "excitedly": 4741,
      "Once": 4742,
      "Shoot": 4743,
      "confident": 4744,
      "waving": 4745,
      "salmon": 4746,
      "bald": 4747,
      "Vermont": 4748,
      "basically": 4749,
      "catching": 4750,
      "bella": 4751,
      "Missy": 4752,
      "Mississ": 4753,
      "joining": 4754,
      "common": 4755,
      "NOW": 4756,
      "annulment": 4757,
      "Thomps": 4758,
      "dents": 4759,
      "scores": 4760,
      "leaning": 4761,
      "agreement": 4762,
      "crossword": 4763,
      "lange": 4764,
      "ignores": 4765,
      "basketball": 4766,
      "adoption": 4767,
      "oppos": 4768,
      "opportun": 4769,
      "Adam": 4770,
      "official": 4771,
      "gesture": 4772,
      "blocks": 4773,
      "punches": 4774,
      "Chase": 4775,
      "appears": 4776,
      "hiding": 4777,
      "labor": 4778,
      "shouting": 4779,
      "Six": 4780,
      "tissue": 4781,
      "Malcom": 4782,
      "fantastic": 4783,
      "balloons": 4784,
      "poem": 4785,
      "besides": 4786,
      "Eleonora": 4787,
      "emotional": 4788,
      "Hanuk": 4789,
      "favourite": 4790,
      "Lizzie": 4791,
      "Shana": 4792,
      "nickname": 4793,
      "Surpr": 4794,
      "younger": 4795,
      "ceremony": 4796,
      "moustache": 4797,
      "Meehan": 4798,
      "commitment": 4799,
      "Hanukkah": 4800,
      ".(": 4801,
      "Att": 4802,
      "Agency": 4803,
      "Bill": 4804,
      "Clean": 4805,
      "DO": 4806,
      "DUN": 4807,
      "Easy": 4808,
      "Find": 4809,
      "Flight": 4810,
      "HE": 4811,
      "JAN": 4812,
      "Kau": 4813,
      "La": 4814,
      "Mug": 4815,
      "Night": 4816,
      "Ra": 4817,
      "SE": 4818,
      "Son": 4819,
      "Set": 4820,
      "Sounds": 4821,
      "Ta": 4822,
      "Tru": 4823,
      "TLE": 4824,
      "boun": 4825,
      "eve": 4826,
      "gle": 4827,
      "groom": 4828,
      "ki": 4829,
      "pump": 4830,
      "pounds": 4831,
      "pleased": 4832,
      "rab": 4833,
      "rick": 4834,
      "zes": 4835,
      "hero": 4836,
      "rey": 4837,
      "toss": 4838,
      "ism": 4839,
      "iches": 4840,
      "stal": 4841,
      "stink": 4842,
      "stain": 4843,
      "envelo": 4844,
      "aron": 4845,
      "arran": 4846,
      "oop": 4847,
      "wesome": 4848,
      "asks": 4849,
      "Heads": 4850,
      "hig": 4851,
      "fet": 4852,
      "fear": 4853,
      "usual": 4854,
      "ights": 4855,
      "oper": 4856,
      "sugar": 4857,
      "expression": 4858,
      "themselves": 4859,
      "stories": 4860,
      "Colle": 4861,
      "prote": 4862,
      "ulp": 4863,
      "students": 4864,
      "impress": 4865,
      "impossible": 4866,
      "jobs": 4867,
      "major": 4868,
      "startled": 4869,
      "China": 4870,
      "stuffed": 4871,
      "resting": 4872,
      "Before": 4873,
      "Start": 4874,
      "Carlock": 4875,
      "knob": 4876,
      "Richards": 4877,
      "Rosen": 4878,
      "problems": 4879,
      "Doesn": 4880,
      "mommy": 4881,
      "Hombre": 4882,
      "sensitive": 4883,
      "Barn": 4884,
      "dropping": 4885,
      "touches": 4886,
      "strug": 4887,
      "coats": 4888,
      "freezer": 4889,
      "extreme": 4890,
      "comfort": 4891,
      "visit": 4892,
      "brothers": 4893,
      "Definitely": 4894,
      "flower": 4895,
      "ennis": 4896,
      "Enough": 4897,
      "ATM": 4898,
      "arriving": 4899,
      "LES": 4900,
      "atural": 4901,
      "drags": 4902,
      "pouring": 4903,
      "viol": 4904,
      "Sebastiano": 4905,
      "graph": 4906,
      "Matthe": 4907,
      "license": 4908,
      "satis": 4909,
      "Robin": 4910,
      "scratch": 4911,
      "GOD": 4912,
      "generous": 4913,
      "panties": 4914,
      "sorta": 4915,
      "Pottery": 4916,
      "Marta": 4917,
      "crowd": 4918,
      "remembered": 4919,
      "lawyer": 4920,
      "Atlantic": 4921,
      "attracted": 4922,
      "Dutch": 4923,
      "GRAND": 4924,
      "Mitchell": 4925,
      "LITTLE": 4926,
      "especially": 4927,
      "Thompson": 4928,
      "opposite": 4929,
      "DUNCAN": 4930,
      "300": 4931,
      "90": 4932,
      "Ber": 4933,
      "Baby": 4934,
      "CD": 4935,
      "CR": 4936,
      "Cap": 4937,
      "Cus": 4938,
      "Dar": 4939,
      "Dry": 4940,
      "Dennis": 4941,
      "Eight": 4942,
      "Fon": 4943,
      "Father": 4944,
      "Gas": 4945,
      "Hay": 4946,
      "Has": 4947,
      "Hits": 4948,
      "Kash": 4949,
      "Later": 4950,
      "Lew": 4951,
      "NE": 4952,
      "Old": 4953,
      "Over": 4954,
      "RT": 4955,
      "Sm": 4956,
      "Tu": 4957,
      "bread": 4958,
      "cater": 4959,
      "dou": 4960,
      "dish": 4961,
      "dated": 4962,
      "een": 4963,
      "gig": 4964,
      "ied": 4965,
      "jack": 4966,
      "mister": 4967,
      "nch": 4968,
      "odo": 4969,
      "oween": 4970,
      "pact": 4971,
      "pical": 4972,
      "rhy": 4973,
      "rug": 4974,
      "vic": 4975,
      "via": 4976,
      "iny": 4977,
      "ouder": 4978,
      "thrown": 4979,
      "toward": 4980,
      "beers": 4981,
      "mere": 4982,
      "states": 4983,
      "ents": 4984,
      "orig": 4985,
      "orange": 4986,
      "although": 4987,
      "soda": 4988,
      "outfit": 4989,
      "upon": 4990,
      "chor": 4991,
      "charm": 4992,
      "neat": 4993,
      "cancel": 4994,
      "unfair": 4995,
      "butter": 4996,
      "urance": 4997,
      "Shelley": 4998,
      "elic": 4999
    },
    "merges": [
      [
        "h",
        "e"
      ],
      [
        "a",
        "n"
      ],
      [
        "i",
        "n"
      ],
      [
        "o",
        "u"
      ],
      [
        "o",
        "n"
      ],
      [
        "r",
        "e"
      ],
      [
        "t",
        "he"
      ],
      [
        "e",
        "r"
      ],
      [
        "a",
        "t"
      ],
      [
        "t",
        "h"
      ],
      [
        "an",
        "d"
      ],
      [
        "in",
        "g"
      ],
      [
        "y",
        "ou"
      ],
      [
        "t",
        "o"
      ],
      [
        "l",
        "l"
      ],
      [
        "i",
        "s"
      ],
      [
        "o",
        "e"
      ],
      [
        "b",
        "e"
      ],
      [
        "m",
        "e"
      ],
      [
        "i",
        "t"
      ],
      [
        "a",
        "c"
      ],
      [
        "i",
        "c"
      ],
      [
        "s",
        "t"
      ],
      [
        "e",
        "n"
      ],
      [
        "n",
        "o"
      ],
      [
        "s",
        "s"
      ],
      [
        "a",
        "r"
      ],
      [
        "o",
        "r"
      ],
      [
        "s",
        "e"
      ],
      [
        "a",
        "y"
      ],
      [
        "he",
        "l"
      ],
      [
        "o",
        "ss"
      ],
      [
        "h",
        "and"
      ],
      [
        "R",
        "ac"
      ],
      [
        "l",
        "e"
      ],
      [
        "R",
        "oss"
      ],
      [
        "Rac",
        "hel"
      ],
      [
        "v",
        "e"
      ],
      [
        "ic",
        "a"
      ],
      [
        "M",
        "on"
      ],
      [
        "J",
        "oe"
      ],
      [
        "l",
        "er"
      ],
      [
        "Joe",
        "y"
      ],
      [
        "C",
        "hand"
      ],
      [
        "Chand",
        "ler"
      ],
      [
        "Mon",
        "ica"
      ],
      [
        "o",
        "o"
      ],
      [
        "k",
        "e"
      ],
      [
        "h",
        "at"
      ],
      [
        "h",
        "a"
      ],
      [
        ".",
        "."
      ],
      [
        "h",
        "oe"
      ],
      [
        "w",
        "e"
      ],
      [
        "P",
        "hoe"
      ],
      [
        "Phoe",
        "be"
      ],
      [
        "th",
        "at"
      ],
      [
        "g",
        "h"
      ],
      [
        "o",
        "f"
      ],
      [
        "no",
        "w"
      ],
      [
        "d",
        "o"
      ],
      [
        "a",
        "ll"
      ],
      [
        "a",
        "s"
      ],
      [
        "a",
        "l"
      ],
      [
        "r",
        "i"
      ],
      [
        "O",
        "h"
      ],
      [
        ".",
        ")"
      ],
      [
        "u",
        "t"
      ],
      [
        "s",
        "o"
      ],
      [
        "l",
        "i"
      ],
      [
        "i",
        "d"
      ],
      [
        "k",
        "now"
      ],
      [
        "gh",
        "t"
      ],
      [
        "ou",
        "t"
      ],
      [
        "h",
        "o"
      ],
      [
        "g",
        "e"
      ],
      [
        "g",
        "o"
      ],
      [
        "H",
        "e"
      ],
      [
        "l",
        "d"
      ],
      [
        "e",
        "d"
      ],
      [
        "u",
        "st"
      ],
      [
        "w",
        "i"
      ],
      [
        "e",
        "a"
      ],
      [
        "v",
        "er"
      ],
      [
        "on",
        "e"
      ],
      [
        "a",
        "re"
      ],
      [
        "e",
        "ll"
      ],
      [
        "a",
        "b"
      ],
      [
        "r",
        "o"
      ],
      [
        "e",
        "s"
      ],
      [
        "m",
        "y"
      ],
      [
        "u",
        "p"
      ],
      [
        "j",
        "ust"
      ],
      [
        "he",
        "r"
      ],
      [
        "t",
        "s"
      ],
      [
        "f",
        "or"
      ],
      [
        "th",
        "is"
      ],
      [
        "h",
        "i"
      ],
      [
        "Y",
        "ou"
      ],
      [
        "ea",
        "h"
      ],
      [
        "wi",
        "th"
      ],
      [
        "n",
        "d"
      ],
      [
        "k",
        "ay"
      ],
      [
        "oo",
        "k"
      ],
      [
        "a",
        "d"
      ],
      [
        "T",
        "he"
      ],
      [
        "n",
        "a"
      ],
      [
        "w",
        "hat"
      ],
      [
        "N",
        "o"
      ],
      [
        "t",
        "er"
      ],
      [
        "l",
        "y"
      ],
      [
        "no",
        "t"
      ],
      [
        "ha",
        "ve"
      ],
      [
        "..",
        "."
      ],
      [
        "ou",
        "ld"
      ],
      [
        "i",
        "r"
      ],
      [
        "a",
        "u"
      ],
      [
        "l",
        "o"
      ],
      [
        "c",
        "h"
      ],
      [
        "w",
        "as"
      ],
      [
        "d",
        "on"
      ],
      [
        "n",
        "t"
      ],
      [
        "an",
        "t"
      ],
      [
        "c",
        "o"
      ],
      [
        "th",
        "ing"
      ],
      [
        "n",
        "e"
      ],
      [
        "all",
        "y"
      ],
      [
        "h",
        "is"
      ],
      [
        "Y",
        "eah"
      ],
      [
        "r",
        "y"
      ],
      [
        "ri",
        "ght"
      ],
      [
        "g",
        "u"
      ],
      [
        "ge",
        "t"
      ],
      [
        "W",
        "hat"
      ],
      [
        "He",
        "y"
      ],
      [
        "O",
        "kay"
      ],
      [
        "m",
        "o"
      ],
      [
        ".",
        "]"
      ],
      [
        "c",
        "en"
      ],
      [
        "s",
        "he"
      ],
      [
        "he",
        "re"
      ],
      [
        "in",
        "k"
      ],
      [
        "li",
        "ke"
      ],
      [
        "a",
        "ke"
      ],
      [
        "you",
        "r"
      ],
      [
        "W",
        "ell"
      ],
      [
        "c",
        "an"
      ],
      [
        "t",
        "i"
      ],
      [
        "hi",
        "m"
      ],
      [
        "so",
        "me"
      ],
      [
        "l",
        "ook"
      ],
      [
        "cen",
        "e"
      ],
      [
        "u",
        "n"
      ],
      [
        "b",
        "ut"
      ],
      [
        "I",
        "m"
      ],
      [
        "the",
        "r"
      ],
      [
        "S",
        "cene"
      ],
      [
        "a",
        "p"
      ],
      [
        "ar",
        "t"
      ],
      [
        "the",
        "re"
      ],
      [
        "ab",
        "out"
      ],
      [
        "g",
        "on"
      ],
      [
        "ac",
        "k"
      ],
      [
        "gon",
        "na"
      ],
      [
        "th",
        "ink"
      ],
      [
        "a",
        "m"
      ],
      [
        "u",
        "r"
      ],
      [
        "u",
        "h"
      ],
      [
        "i",
        "f"
      ],
      [
        "d",
        "id"
      ],
      [
        "gu",
        "y"
      ],
      [
        "b",
        "o"
      ],
      [
        "f",
        "e"
      ],
      [
        "k",
        "s"
      ],
      [
        "it",
        "s"
      ],
      [
        "go",
        "t"
      ],
      [
        "w",
        "ay"
      ],
      [
        "S",
        "o"
      ],
      [
        "o",
        "w"
      ],
      [
        "c",
        "e"
      ],
      [
        "a",
        "g"
      ],
      [
        "!",
        "!"
      ],
      [
        "au",
        "se"
      ],
      [
        "A",
        "nd"
      ],
      [
        "p",
        "l"
      ],
      [
        "k",
        "ing"
      ],
      [
        "u",
        "s"
      ],
      [
        "oo",
        "d"
      ],
      [
        "u",
        "m"
      ],
      [
        "ro",
        "m"
      ],
      [
        "e",
        "t"
      ],
      [
        "me",
        "an"
      ],
      [
        "it",
        "t"
      ],
      [
        "ver",
        "y"
      ],
      [
        "en",
        "t"
      ],
      [
        "oe",
        "s"
      ],
      [
        "se",
        "e"
      ],
      [
        "w",
        "ant"
      ],
      [
        "b",
        "ack"
      ],
      [
        "oo",
        "m"
      ],
      [
        "ic",
        "e"
      ],
      [
        "re",
        "ally"
      ],
      [
        "the",
        "y"
      ],
      [
        "h",
        "y"
      ],
      [
        "ho",
        "w"
      ],
      [
        "don",
        "t"
      ],
      [
        "S",
        "he"
      ],
      [
        "i",
        "ll"
      ],
      [
        "in",
        "d"
      ],
      [
        "i",
        "ght"
      ],
      [
        "?",
        "!"
      ],
      [
        "r",
        "oom"
      ],
      [
        "a",
        "in"
      ],
      [
        "f",
        "rom"
      ],
      [
        "en",
        "d"
      ],
      [
        "T",
        "hat"
      ],
      [
        "an",
        "y"
      ],
      [
        "b",
        "y"
      ],
      [
        "le",
        "a"
      ],
      [
        "s",
        "h"
      ],
      [
        "ar",
        "d"
      ],
      [
        "he",
        "n"
      ],
      [
        "en",
        "ter"
      ],
      [
        "in",
        "e"
      ],
      [
        "e",
        "l"
      ],
      [
        "p",
        "p"
      ],
      [
        "w",
        "ho"
      ],
      [
        "w",
        "or"
      ],
      [
        "G",
        "o"
      ],
      [
        "i",
        "on"
      ],
      [
        "I",
        "t"
      ],
      [
        "C",
        "H"
      ],
      [
        "s",
        "ay"
      ],
      [
        "w",
        "n"
      ],
      [
        "p",
        "e"
      ],
      [
        "m",
        "an"
      ],
      [
        "is",
        "t"
      ],
      [
        "d",
        "e"
      ],
      [
        "w",
        "ould"
      ],
      [
        "s",
        "a"
      ],
      [
        "we",
        "re"
      ],
      [
        "A",
        "ll"
      ],
      [
        "o",
        "p"
      ],
      [
        "w",
        "o"
      ],
      [
        "l",
        "a"
      ],
      [
        "co",
        "me"
      ],
      [
        "ti",
        "me"
      ],
      [
        "ou",
        "r"
      ],
      [
        "at",
        "e"
      ],
      [
        "o",
        "ver"
      ],
      [
        "s",
        "u"
      ],
      [
        "p",
        "o"
      ],
      [
        "ou",
        "nd"
      ],
      [
        "v",
        "ing"
      ],
      [
        "me",
        "nt"
      ],
      [
        "a",
        "it"
      ],
      [
        "of",
        "f"
      ],
      [
        "go",
        "ing"
      ],
      [
        "c",
        "k"
      ],
      [
        "re",
        "at"
      ],
      [
        "guy",
        "s"
      ],
      [
        "Go",
        "d"
      ],
      [
        "c",
        "ause"
      ],
      [
        "g",
        "ood"
      ],
      [
        "m",
        "m"
      ],
      [
        "i",
        "ve"
      ],
      [
        "W",
        "e"
      ],
      [
        "do",
        "wn"
      ],
      [
        "t",
        "al"
      ],
      [
        "or",
        "ry"
      ],
      [
        "t",
        "ell"
      ],
      [
        "li",
        "e"
      ],
      [
        "the",
        "n"
      ],
      [
        "i",
        "g"
      ],
      [
        "e",
        "x"
      ],
      [
        "i",
        "e"
      ],
      [
        "The",
        "y"
      ],
      [
        "e",
        "p"
      ],
      [
        "o",
        "kay"
      ],
      [
        "c",
        "on"
      ],
      [
        "h",
        "an"
      ],
      [
        "d",
        "ay"
      ],
      [
        "to",
        "o"
      ],
      [
        "itt",
        "le"
      ],
      [
        "t",
        "ing"
      ],
      [
        "O",
        "E"
      ],
      [
        "er",
        "s"
      ],
      [
        "p",
        "re"
      ],
      [
        "l",
        "ittle"
      ],
      [
        "o",
        "ther"
      ],
      [
        "the",
        "m"
      ],
      [
        "r",
        "a"
      ],
      [
        "w",
        "hen"
      ],
      [
        "h",
        "one"
      ],
      [
        "H",
        "i"
      ],
      [
        "c",
        "ould"
      ],
      [
        "t",
        "ake"
      ],
      [
        "on",
        "g"
      ],
      [
        "re",
        "d"
      ],
      [
        "s",
        "orry"
      ],
      [
        "do",
        "or"
      ],
      [
        "t",
        "u"
      ],
      [
        "c",
        "he"
      ],
      [
        "m",
        "ake"
      ],
      [
        "i",
        "l"
      ],
      [
        "ic",
        "k"
      ],
      [
        "lo",
        "ve"
      ],
      [
        "M",
        "r"
      ],
      [
        "ur",
        "n"
      ],
      [
        "t",
        "e"
      ],
      [
        "B",
        "ut"
      ],
      [
        "s",
        "to"
      ],
      [
        "g",
        "reat"
      ],
      [
        "d",
        "y"
      ],
      [
        "ag",
        "ain"
      ],
      [
        "d",
        "oes"
      ],
      [
        "e",
        "very"
      ],
      [
        "ha",
        "d"
      ],
      [
        "f",
        "ri"
      ],
      [
        "we",
        "ll"
      ],
      [
        "q",
        "u"
      ],
      [
        "ac",
        "e"
      ],
      [
        "ha",
        "pp"
      ],
      [
        "sh",
        "ould"
      ],
      [
        "some",
        "thing"
      ],
      [
        "w",
        "al"
      ],
      [
        "U",
        "h"
      ],
      [
        "b",
        "ab"
      ],
      [
        "ou",
        "s"
      ],
      [
        "ke",
        "d"
      ],
      [
        "E",
        "R"
      ],
      [
        "o",
        "h"
      ],
      [
        "T",
        "o"
      ],
      [
        "v",
        "en"
      ],
      [
        "re",
        "ad"
      ],
      [
        "ar",
        "ts"
      ],
      [
        "y",
        "eah"
      ],
      [
        "ha",
        "s"
      ],
      [
        "co",
        "m"
      ],
      [
        "A",
        "N"
      ],
      [
        "t",
        "a"
      ],
      [
        "t",
        "urn"
      ],
      [
        "you",
        "re"
      ],
      [
        "L",
        "ook"
      ],
      [
        "p",
        "s"
      ],
      [
        "in",
        "to"
      ],
      [
        "f",
        "f"
      ],
      [
        "c",
        "ou"
      ],
      [
        "C",
        "o"
      ],
      [
        "m",
        "u"
      ],
      [
        "s",
        "p"
      ],
      [
        "fri",
        "end"
      ],
      [
        "w",
        "an"
      ],
      [
        "ou",
        "gh"
      ],
      [
        "art",
        "ment"
      ],
      [
        "ab",
        "le"
      ],
      [
        "w",
        "ait"
      ],
      [
        "p",
        "ro"
      ],
      [
        "u",
        "l"
      ],
      [
        "y",
        "e"
      ],
      [
        "s",
        "c"
      ],
      [
        "id",
        "e"
      ],
      [
        "O",
        "N"
      ],
      [
        "is",
        "s"
      ],
      [
        "Y",
        "es"
      ],
      [
        "mo",
        "re"
      ],
      [
        "R",
        "O"
      ],
      [
        "a",
        "st"
      ],
      [
        "se",
        "d"
      ],
      [
        "T",
        "han"
      ],
      [
        "c",
        "all"
      ],
      [
        "th",
        "an"
      ],
      [
        "ist",
        "en"
      ],
      [
        "f",
        "o"
      ],
      [
        "r",
        "an"
      ],
      [
        "W",
        "hy"
      ],
      [
        "st",
        "ill"
      ],
      [
        "be",
        "en"
      ],
      [
        "ic",
        "h"
      ],
      [
        "ay",
        "be"
      ],
      [
        "H",
        "ow"
      ],
      [
        "S",
        "S"
      ],
      [
        "p",
        "hone"
      ],
      [
        "I",
        "ts"
      ],
      [
        "le",
        "t"
      ],
      [
        "ou",
        "ght"
      ],
      [
        "T",
        "his"
      ],
      [
        "p",
        "ut"
      ],
      [
        "do",
        "ing"
      ],
      [
        "h",
        "h"
      ],
      [
        "look",
        "s"
      ],
      [
        "g",
        "r"
      ],
      [
        "ap",
        "artment"
      ],
      [
        "l",
        "f"
      ],
      [
        "i",
        "ke"
      ],
      [
        "R",
        "e"
      ],
      [
        "be",
        "d"
      ],
      [
        "sa",
        "id"
      ],
      [
        "C",
        "A"
      ],
      [
        "a",
        "ge"
      ],
      [
        "RO",
        "SS"
      ],
      [
        "w",
        "hy"
      ],
      [
        "m",
        "i"
      ],
      [
        "he",
        "ad"
      ],
      [
        "ro",
        "w"
      ],
      [
        "st",
        "u"
      ],
      [
        "b",
        "le"
      ],
      [
        "st",
        "arts"
      ],
      [
        "ne",
        "ed"
      ],
      [
        "pl",
        "ay"
      ],
      [
        "b",
        "er"
      ],
      [
        "enter",
        "s"
      ],
      [
        "g",
        "ive"
      ],
      [
        "R",
        "A"
      ],
      [
        "be",
        "cause"
      ],
      [
        "ac",
        "h"
      ],
      [
        "ne",
        "ver"
      ],
      [
        "lea",
        "ve"
      ],
      [
        "RA",
        "CH"
      ],
      [
        "t",
        "r"
      ],
      [
        "ar",
        "ound"
      ],
      [
        "n",
        "y"
      ],
      [
        "that",
        "s"
      ],
      [
        "ne",
        "w"
      ],
      [
        "ir",
        "l"
      ],
      [
        "mu",
        "ch"
      ],
      [
        "m",
        "ar"
      ],
      [
        "t",
        "y"
      ],
      [
        "be",
        "lie"
      ],
      [
        "i",
        "m"
      ],
      [
        "L",
        "ER"
      ],
      [
        "enter",
        "ing"
      ],
      [
        "CH",
        "AN"
      ],
      [
        "r",
        "ing"
      ],
      [
        "c",
        "ant"
      ],
      [
        "j",
        "o"
      ],
      [
        "re",
        "a"
      ],
      [
        "ry",
        "ing"
      ],
      [
        "E",
        "L"
      ],
      [
        "bo",
        "dy"
      ],
      [
        "ar",
        "s"
      ],
      [
        "l",
        "au"
      ],
      [
        "wi",
        "ll"
      ],
      [
        "fe",
        "el"
      ],
      [
        "c",
        "lo"
      ],
      [
        "w",
        "here"
      ],
      [
        "be",
        "t"
      ],
      [
        "b",
        "ig"
      ],
      [
        "t",
        "wo"
      ],
      [
        "re",
        "e"
      ],
      [
        "m",
        "a"
      ],
      [
        "le",
        "s"
      ],
      [
        "at",
        "ion"
      ],
      [
        "st",
        "art"
      ],
      [
        "wan",
        "na"
      ],
      [
        "at",
        "ch"
      ],
      [
        "u",
        "g"
      ],
      [
        "to",
        "r"
      ],
      [
        "r",
        "un"
      ],
      [
        "f",
        "un"
      ],
      [
        "ir",
        "st"
      ],
      [
        "happ",
        "en"
      ],
      [
        "d",
        "ing"
      ],
      [
        "g",
        "irl"
      ],
      [
        "th",
        "ought"
      ],
      [
        "ut",
        "e"
      ],
      [
        "op",
        "le"
      ],
      [
        "k",
        "ind"
      ],
      [
        "D",
        "LER"
      ],
      [
        "CHAN",
        "DLER"
      ],
      [
        "a",
        "way"
      ],
      [
        "I",
        "CA"
      ],
      [
        "lea",
        "se"
      ],
      [
        "C",
        "h"
      ],
      [
        "e",
        "ss"
      ],
      [
        "tal",
        "k"
      ],
      [
        "p",
        "ic"
      ],
      [
        "bab",
        "y"
      ],
      [
        "belie",
        "ve"
      ],
      [
        "wor",
        "k"
      ],
      [
        "op",
        "en"
      ],
      [
        "p",
        "art"
      ],
      [
        "M",
        "ON"
      ],
      [
        "u",
        "nd"
      ],
      [
        "MON",
        "ICA"
      ],
      [
        "J",
        "OE"
      ],
      [
        "JOE",
        "Y"
      ],
      [
        "RACH",
        "EL"
      ],
      [
        "f",
        "irst"
      ],
      [
        "P",
        "H"
      ],
      [
        "pe",
        "ople"
      ],
      [
        "se",
        "lf"
      ],
      [
        "t",
        "able"
      ],
      [
        "on",
        "t"
      ],
      [
        "e",
        "ver"
      ],
      [
        "e",
        "ven"
      ],
      [
        "i",
        "es"
      ],
      [
        "n",
        "ight"
      ],
      [
        "fo",
        "re"
      ],
      [
        "st",
        "and"
      ],
      [
        "Co",
        "me"
      ],
      [
        "he",
        "s"
      ],
      [
        "a",
        "h"
      ],
      [
        "PH",
        "OE"
      ],
      [
        "lau",
        "gh"
      ],
      [
        "M",
        "ike"
      ],
      [
        "The",
        "re"
      ],
      [
        "ri",
        "ed"
      ],
      [
        "g",
        "oes"
      ],
      [
        "tu",
        "ally"
      ],
      [
        "W",
        "ow"
      ],
      [
        "look",
        "ing"
      ],
      [
        "That",
        "s"
      ],
      [
        "O",
        "k"
      ],
      [
        "W",
        "ho"
      ],
      [
        "m",
        "in"
      ],
      [
        "I",
        "ll"
      ],
      [
        "D",
        "o"
      ],
      [
        "c",
        "i"
      ],
      [
        "P",
        "er"
      ],
      [
        "s",
        "ide"
      ],
      [
        "b",
        "u"
      ],
      [
        "A",
        "l"
      ],
      [
        "w",
        "r"
      ],
      [
        "n",
        "er"
      ],
      [
        "ti",
        "on"
      ],
      [
        "um",
        "m"
      ],
      [
        "r",
        "al"
      ],
      [
        "an",
        "s"
      ],
      [
        "did",
        "nt"
      ],
      [
        "a",
        "ss"
      ],
      [
        "T",
        "H"
      ],
      [
        "a",
        "me"
      ],
      [
        "is",
        "h"
      ],
      [
        "it",
        "e"
      ],
      [
        "C",
        "ent"
      ],
      [
        "B",
        "E"
      ],
      [
        "read",
        "y"
      ],
      [
        "Y",
        "know"
      ],
      [
        "a",
        "f"
      ],
      [
        "i",
        "z"
      ],
      [
        "Cent",
        "ral"
      ],
      [
        "f",
        "i"
      ],
      [
        "he",
        "y"
      ],
      [
        "we",
        "d"
      ],
      [
        "a",
        "v"
      ],
      [
        "m",
        "aybe"
      ],
      [
        "y",
        "know"
      ],
      [
        "stu",
        "ff"
      ],
      [
        "wal",
        "ks"
      ],
      [
        "an",
        "g"
      ],
      [
        "the",
        "ir"
      ],
      [
        "b",
        "s"
      ],
      [
        "Per",
        "k"
      ],
      [
        "rea",
        "k"
      ],
      [
        "get",
        "ting"
      ],
      [
        "J",
        "an"
      ],
      [
        "s",
        "how"
      ],
      [
        "d",
        "i"
      ],
      [
        "m",
        "ad"
      ],
      [
        "tal",
        "king"
      ],
      [
        "did",
        "n"
      ],
      [
        "PHOE",
        "BE"
      ],
      [
        "D",
        "r"
      ],
      [
        "k",
        "iss"
      ],
      [
        "h",
        "uh"
      ],
      [
        "G",
        "ell"
      ],
      [
        "ge",
        "ts"
      ],
      [
        "su",
        "re"
      ],
      [
        "w",
        "in"
      ],
      [
        "turn",
        "s"
      ],
      [
        "No",
        "w"
      ],
      [
        "at",
        "h"
      ],
      [
        "A",
        "re"
      ],
      [
        "at",
        "er"
      ],
      [
        "mo",
        "ve"
      ],
      [
        "any",
        "thing"
      ],
      [
        "m",
        "or"
      ],
      [
        "on",
        "ly"
      ],
      [
        "re",
        "al"
      ],
      [
        "se",
        "s"
      ],
      [
        "s",
        "ing"
      ],
      [
        "re",
        "st"
      ],
      [
        "la",
        "st"
      ],
      [
        "i",
        "ous"
      ],
      [
        "c",
        "t"
      ],
      [
        "ac",
        "t"
      ],
      [
        "s",
        "we"
      ],
      [
        "itt",
        "ing"
      ],
      [
        "B",
        "e"
      ],
      [
        "I",
        "s"
      ],
      [
        "o",
        "l"
      ],
      [
        "w",
        "atch"
      ],
      [
        "be",
        "fore"
      ],
      [
        "wo",
        "man"
      ],
      [
        "und",
        "er"
      ],
      [
        "Gell",
        "er"
      ],
      [
        "t",
        "on"
      ],
      [
        "na",
        "me"
      ],
      [
        "n",
        "ing"
      ],
      [
        "ar",
        "ing"
      ],
      [
        "u",
        "re"
      ],
      [
        "S",
        "e"
      ],
      [
        "ho",
        "ld"
      ],
      [
        "W",
        "ait"
      ],
      [
        "k",
        "id"
      ],
      [
        "f",
        "in"
      ],
      [
        "m",
        "on"
      ],
      [
        "o",
        "ld"
      ],
      [
        "u",
        "se"
      ],
      [
        "E",
        "mi"
      ],
      [
        "ha",
        "ir"
      ],
      [
        "Emi",
        "ly"
      ],
      [
        "y",
        "es"
      ],
      [
        "Re",
        "ally"
      ],
      [
        "p",
        "er"
      ],
      [
        "ac",
        "tually"
      ],
      [
        "p",
        "r"
      ],
      [
        "po",
        "in"
      ],
      [
        "s",
        "ho"
      ],
      [
        "pl",
        "ace"
      ],
      [
        "p",
        "le"
      ],
      [
        "bo",
        "th"
      ],
      [
        "got",
        "ta"
      ],
      [
        "c",
        "tor"
      ],
      [
        "o",
        "se"
      ],
      [
        "f",
        "ind"
      ],
      [
        "me",
        "n"
      ],
      [
        "oo",
        "l"
      ],
      [
        "one",
        "y"
      ],
      [
        "pre",
        "t"
      ],
      [
        "w",
        "h"
      ],
      [
        "n",
        "ice"
      ],
      [
        "u",
        "ll"
      ],
      [
        "y",
        "a"
      ],
      [
        "ge",
        "ther"
      ],
      [
        "x",
        "t"
      ],
      [
        "to",
        "gether"
      ],
      [
        "Than",
        "k"
      ],
      [
        "she",
        "s"
      ],
      [
        "the",
        "se"
      ],
      [
        "re",
        "ss"
      ],
      [
        "ne",
        "xt"
      ],
      [
        "a",
        "ir"
      ],
      [
        "l",
        "isten"
      ],
      [
        "ll",
        "o"
      ],
      [
        "lo",
        "t"
      ],
      [
        "c",
        "ar"
      ],
      [
        "hand",
        "s"
      ],
      [
        "f",
        "ine"
      ],
      [
        "ha",
        "ving"
      ],
      [
        "at",
        "ing"
      ],
      [
        "is",
        "e"
      ],
      [
        "l",
        "u"
      ],
      [
        "it",
        "y"
      ],
      [
        "Than",
        "ks"
      ],
      [
        "bet",
        "ter"
      ],
      [
        "M",
        "y"
      ],
      [
        "b",
        "ad"
      ],
      [
        "r",
        "u"
      ],
      [
        "s",
        "er"
      ],
      [
        "s",
        "itting"
      ],
      [
        "th",
        "ose"
      ],
      [
        "Mr",
        "s"
      ],
      [
        "hel",
        "p"
      ],
      [
        "ir",
        "d"
      ],
      [
        "or",
        "t"
      ],
      [
        "Oh",
        "h"
      ],
      [
        "f",
        "t"
      ],
      [
        "e",
        "m"
      ],
      [
        "p",
        "lease"
      ],
      [
        "me",
        "m"
      ],
      [
        "to",
        "ld"
      ],
      [
        "You",
        "re"
      ],
      [
        "J",
        "ust"
      ],
      [
        "t",
        "rying"
      ],
      [
        "gu",
        "ess"
      ],
      [
        "S",
        "t"
      ],
      [
        "thing",
        "s"
      ],
      [
        "af",
        "ter"
      ],
      [
        "B",
        "en"
      ],
      [
        "se",
        "x"
      ],
      [
        "i",
        "an"
      ],
      [
        "an",
        "other"
      ],
      [
        "C",
        "ar"
      ],
      [
        "l",
        "ong"
      ],
      [
        "w",
        "hi"
      ],
      [
        "E",
        "r"
      ],
      [
        "M",
        "ar"
      ],
      [
        "b",
        "ath"
      ],
      [
        "ch",
        "an"
      ],
      [
        "cou",
        "ch"
      ],
      [
        "ke",
        "ep"
      ],
      [
        "r",
        "ough"
      ],
      [
        "d",
        "r"
      ],
      [
        "c",
        "are"
      ],
      [
        "a",
        "ve"
      ],
      [
        "p",
        "t"
      ],
      [
        "f",
        "ace"
      ],
      [
        "e",
        "st"
      ],
      [
        "he",
        "e"
      ],
      [
        "mar",
        "ried"
      ],
      [
        "h",
        "ug"
      ],
      [
        "com",
        "ing"
      ],
      [
        "O",
        "oh"
      ],
      [
        "I",
        "n"
      ],
      [
        "mad",
        "e"
      ],
      [
        "Rac",
        "h"
      ],
      [
        "lo",
        "w"
      ],
      [
        "L",
        "isten"
      ],
      [
        "mem",
        "ber"
      ],
      [
        "th",
        "rough"
      ],
      [
        "c",
        "ks"
      ],
      [
        "d",
        "is"
      ],
      [
        "w",
        "on"
      ],
      [
        "O",
        "K"
      ],
      [
        "g",
        "l"
      ],
      [
        "w",
        "ent"
      ],
      [
        "some",
        "one"
      ],
      [
        "sto",
        "p"
      ],
      [
        "he",
        "ar"
      ],
      [
        "of",
        "fe"
      ],
      [
        "I",
        "ve"
      ],
      [
        "ke",
        "t"
      ],
      [
        "D",
        "id"
      ],
      [
        "Jan",
        "ice"
      ],
      [
        "P",
        "hee"
      ],
      [
        "b",
        "all"
      ],
      [
        "le",
        "ep"
      ],
      [
        "ke",
        "y"
      ],
      [
        "v",
        "ie"
      ],
      [
        "e",
        "ach"
      ],
      [
        "way",
        "s"
      ],
      [
        "F",
        "ran"
      ],
      [
        "ar",
        "y"
      ],
      [
        "s",
        "up"
      ],
      [
        "whi",
        "le"
      ],
      [
        "o",
        "b"
      ],
      [
        "se",
        "t"
      ],
      [
        "le",
        "ft"
      ],
      [
        "Phee",
        "bs"
      ],
      [
        "G",
        "ood"
      ],
      [
        "b",
        "r"
      ],
      [
        "d",
        "er"
      ],
      [
        "g",
        "er"
      ],
      [
        "want",
        "ed"
      ],
      [
        "d",
        "s"
      ],
      [
        "I",
        "f"
      ],
      [
        "d",
        "ate"
      ],
      [
        "s",
        "it"
      ],
      [
        "come",
        "s"
      ],
      [
        "U",
        "mm"
      ],
      [
        "wed",
        "ding"
      ],
      [
        "h",
        "ard"
      ],
      [
        "tu",
        "re"
      ],
      [
        "offe",
        "e"
      ],
      [
        "m",
        "s"
      ],
      [
        "take",
        "s"
      ],
      [
        "TH",
        "E"
      ],
      [
        "d",
        "in"
      ],
      [
        "every",
        "one"
      ],
      [
        "kind",
        "a"
      ],
      [
        "bath",
        "room"
      ],
      [
        "d",
        "u"
      ],
      [
        "J",
        "o"
      ],
      [
        "p",
        "en"
      ],
      [
        "th",
        "row"
      ],
      [
        "bo",
        "y"
      ],
      [
        "C",
        "ut"
      ],
      [
        "g",
        "i"
      ],
      [
        "Ch",
        "ar"
      ],
      [
        "c",
        "le"
      ],
      [
        "He",
        "llo"
      ],
      [
        "pret",
        "ty"
      ],
      [
        "Car",
        "ol"
      ],
      [
        "C",
        "an"
      ],
      [
        "s",
        "hi"
      ],
      [
        "ll",
        "y"
      ],
      [
        "u",
        "sed"
      ],
      [
        "think",
        "ing"
      ],
      [
        "red",
        "its"
      ],
      [
        "part",
        "y"
      ],
      [
        "re",
        "en"
      ],
      [
        "e",
        "ar"
      ],
      [
        "o",
        "k"
      ],
      [
        "t",
        "ri"
      ],
      [
        "E",
        "x"
      ],
      [
        "happen",
        "ed"
      ],
      [
        "b",
        "l"
      ],
      [
        "p",
        "ause"
      ],
      [
        "He",
        "re"
      ],
      [
        "Be",
        "cause"
      ],
      [
        "be",
        "st"
      ],
      [
        "li",
        "ve"
      ],
      [
        "w",
        "ard"
      ],
      [
        "ci",
        "al"
      ],
      [
        "k",
        "no"
      ],
      [
        "gr",
        "ab"
      ],
      [
        "mo",
        "st"
      ],
      [
        "min",
        "ute"
      ],
      [
        "c",
        "offee"
      ],
      [
        "el",
        "se"
      ],
      [
        "Al",
        "right"
      ],
      [
        "s",
        "m"
      ],
      [
        "as",
        "k"
      ],
      [
        "w",
        "er"
      ],
      [
        "bed",
        "room"
      ],
      [
        "f",
        "r"
      ],
      [
        "se",
        "con"
      ],
      [
        "al",
        "ways"
      ],
      [
        "ho",
        "me"
      ],
      [
        "No",
        "t"
      ],
      [
        "b",
        "ro"
      ],
      [
        "ap",
        "p"
      ],
      [
        "p",
        "an"
      ],
      [
        "ex",
        "c"
      ],
      [
        "friend",
        "s"
      ],
      [
        "t",
        "ry"
      ],
      [
        "li",
        "ght"
      ],
      [
        "C",
        "redits"
      ],
      [
        "M",
        "o"
      ],
      [
        "R",
        "ich"
      ],
      [
        "s",
        "ound"
      ],
      [
        "no",
        "thing"
      ],
      [
        "t",
        "en"
      ],
      [
        "open",
        "s"
      ],
      [
        "M",
        "aybe"
      ],
      [
        "ton",
        "ight"
      ],
      [
        "Rich",
        "ard"
      ],
      [
        "c",
        "r"
      ],
      [
        "happ",
        "y"
      ],
      [
        "wr",
        "ong"
      ],
      [
        "la",
        "ss"
      ],
      [
        "does",
        "nt"
      ],
      [
        "jo",
        "b"
      ],
      [
        "re",
        "member"
      ],
      [
        "re",
        "n"
      ],
      [
        "ou",
        "se"
      ],
      [
        "me",
        "et"
      ],
      [
        "leave",
        "s"
      ],
      [
        "m",
        "at"
      ],
      [
        "d",
        "es"
      ],
      [
        "we",
        "e"
      ],
      [
        "bo",
        "x"
      ],
      [
        "mm",
        "a"
      ],
      [
        "wh",
        "ich"
      ],
      [
        "li",
        "fe"
      ],
      [
        "au",
        "l"
      ],
      [
        "every",
        "thing"
      ],
      [
        "Se",
        "e"
      ],
      [
        "d",
        "ress"
      ],
      [
        "hone",
        "y"
      ],
      [
        "fun",
        "ny"
      ],
      [
        "c",
        "ut"
      ],
      [
        "m",
        "oney"
      ],
      [
        "re",
        "am"
      ],
      [
        "s",
        "i"
      ],
      [
        "th",
        "ree"
      ],
      [
        "who",
        "le"
      ],
      [
        "Char",
        "lie"
      ],
      [
        "a",
        "z"
      ],
      [
        "in",
        "ter"
      ],
      [
        "is",
        "ter"
      ],
      [
        "G",
        "u"
      ],
      [
        "in",
        "s"
      ],
      [
        "E",
        "mma"
      ],
      [
        "s",
        "ha"
      ],
      [
        "c",
        "our"
      ],
      [
        "pic",
        "ture"
      ],
      [
        "R",
        "ight"
      ],
      [
        "st",
        "ay"
      ],
      [
        "z",
        "y"
      ],
      [
        "han",
        "g"
      ],
      [
        "wal",
        "k"
      ],
      [
        "u",
        "nt"
      ],
      [
        "by",
        "e"
      ],
      [
        "se",
        "es"
      ],
      [
        "b",
        "reak"
      ],
      [
        "p",
        "ers"
      ],
      [
        "are",
        "n"
      ],
      [
        "in",
        "ce"
      ],
      [
        "be",
        "ing"
      ],
      [
        "P",
        "o"
      ],
      [
        "t",
        "ally"
      ],
      [
        "ye",
        "ars"
      ],
      [
        "laugh",
        "s"
      ],
      [
        "g",
        "ame"
      ],
      [
        "make",
        "s"
      ],
      [
        "Fran",
        "k"
      ],
      [
        "b",
        "it"
      ],
      [
        "c",
        "hi"
      ],
      [
        "d",
        "d"
      ],
      [
        "f",
        "ul"
      ],
      [
        "it",
        "c"
      ],
      [
        "ha",
        "ll"
      ],
      [
        "than",
        "k"
      ],
      [
        "c",
        "ked"
      ],
      [
        "h",
        "ind"
      ],
      [
        "z",
        "a"
      ],
      [
        "to",
        "day"
      ],
      [
        "R",
        "o"
      ],
      [
        "pl",
        "an"
      ],
      [
        "c",
        "ra"
      ],
      [
        "p",
        "ort"
      ],
      [
        "an",
        "c"
      ],
      [
        "le",
        "ss"
      ],
      [
        "H",
        "uh"
      ],
      [
        "be",
        "hind"
      ],
      [
        "W",
        "here"
      ],
      [
        "..",
        ".."
      ],
      [
        "um",
        "p"
      ],
      [
        "s",
        "pe"
      ],
      [
        "sc",
        "ri"
      ],
      [
        "d",
        "ad"
      ],
      [
        "v",
        "o"
      ],
      [
        "we",
        "ird"
      ],
      [
        "ho",
        "t"
      ],
      [
        "E",
        "very"
      ],
      [
        "h",
        "ouse"
      ],
      [
        "an",
        "ce"
      ],
      [
        "say",
        "ing"
      ],
      [
        "w",
        "w"
      ],
      [
        "do",
        "w"
      ],
      [
        "de",
        "c"
      ],
      [
        "W",
        "h"
      ],
      [
        ".",
        "\""
      ],
      [
        "he",
        "ll"
      ],
      [
        "din",
        "ner"
      ],
      [
        "A",
        "h"
      ],
      [
        "J",
        "u"
      ],
      [
        "s",
        "leep"
      ],
      [
        "sa",
        "me"
      ],
      [
        "G",
        "un"
      ],
      [
        "L",
        "et"
      ],
      [
        "T",
        "V"
      ],
      [
        "W",
        "hen"
      ],
      [
        "to",
        "tally"
      ],
      [
        "up",
        "id"
      ],
      [
        "secon",
        "d"
      ],
      [
        "M",
        "e"
      ],
      [
        "b",
        "ook"
      ],
      [
        "t",
        "in"
      ],
      [
        "Gun",
        "ther"
      ],
      [
        "id",
        "ea"
      ],
      [
        "li",
        "ving"
      ],
      [
        "cour",
        "se"
      ],
      [
        "itc",
        "hen"
      ],
      [
        "mm",
        "er"
      ],
      [
        "d",
        "if"
      ],
      [
        "us",
        "h"
      ],
      [
        "po",
        "sed"
      ],
      [
        "dr",
        "ink"
      ],
      [
        "gi",
        "ving"
      ],
      [
        "b",
        "ar"
      ],
      [
        "al",
        "ready"
      ],
      [
        "P",
        "ause"
      ],
      [
        "f",
        "a"
      ],
      [
        "The",
        "n"
      ],
      [
        "does",
        "n"
      ],
      [
        "i",
        "re"
      ],
      [
        "p",
        "ick"
      ],
      [
        "ious",
        "ly"
      ],
      [
        "m",
        "ight"
      ],
      [
        "bab",
        "ly"
      ],
      [
        "D",
        "av"
      ],
      [
        "c",
        "hair"
      ],
      [
        "k",
        "is"
      ],
      [
        "y",
        "et"
      ],
      [
        "at",
        "ed"
      ],
      [
        "we",
        "aring"
      ],
      [
        "chan",
        "ge"
      ],
      [
        "0",
        "0"
      ],
      [
        "k",
        "itchen"
      ],
      [
        "run",
        "s"
      ],
      [
        "put",
        "s"
      ],
      [
        "off",
        "ice"
      ],
      [
        "S",
        "ure"
      ],
      [
        "le",
        "ts"
      ],
      [
        "ma",
        "king"
      ],
      [
        "win",
        "dow"
      ],
      [
        "fr",
        "ont"
      ],
      [
        "Dav",
        "id"
      ],
      [
        "i",
        "ly"
      ],
      [
        "!!",
        "!"
      ],
      [
        "wan",
        "ts"
      ],
      [
        "m",
        "ou"
      ],
      [
        "st",
        "upid"
      ],
      [
        "watch",
        "ing"
      ],
      [
        "G",
        "reen"
      ],
      [
        "l",
        "ater"
      ],
      [
        "pers",
        "on"
      ],
      [
        "E",
        "nd"
      ],
      [
        "P",
        "lease"
      ],
      [
        "it",
        "ed"
      ],
      [
        "ir",
        "th"
      ],
      [
        "play",
        "ing"
      ],
      [
        "h",
        "our"
      ],
      [
        "pro",
        "ble"
      ],
      [
        "c",
        "ame"
      ],
      [
        "d",
        "one"
      ],
      [
        "t",
        "ic"
      ],
      [
        "to",
        "p"
      ],
      [
        "T",
        "ran"
      ],
      [
        "ver",
        "s"
      ],
      [
        "there",
        "s"
      ],
      [
        "Who",
        "a"
      ],
      [
        "cra",
        "zy"
      ],
      [
        "c",
        "ard"
      ],
      [
        "e",
        "at"
      ],
      [
        "e",
        "ts"
      ],
      [
        "au",
        "r"
      ],
      [
        "mor",
        "row"
      ],
      [
        "M",
        "an"
      ],
      [
        "l",
        "ate"
      ],
      [
        "p",
        "ull"
      ],
      [
        "re",
        "nt"
      ],
      [
        "S",
        "us"
      ],
      [
        "ar",
        "m"
      ],
      [
        "Er",
        "ic"
      ],
      [
        "say",
        "s"
      ],
      [
        "cou",
        "ple"
      ],
      [
        "sup",
        "posed"
      ],
      [
        "grab",
        "s"
      ],
      [
        "u",
        "e"
      ],
      [
        "W",
        "al"
      ],
      [
        "pro",
        "bably"
      ],
      [
        "ye",
        "ar"
      ],
      [
        "poin",
        "t"
      ],
      [
        "L",
        "au"
      ],
      [
        "c",
        "at"
      ],
      [
        "th",
        "ough"
      ],
      [
        "un",
        "ch"
      ],
      [
        "tell",
        "ing"
      ],
      [
        "est",
        "ion"
      ],
      [
        "f",
        "l"
      ],
      [
        "are",
        "s"
      ],
      [
        "che",
        "ck"
      ],
      [
        "call",
        "ed"
      ],
      [
        "ss",
        "age"
      ],
      [
        "de",
        "al"
      ],
      [
        "b",
        "irth"
      ],
      [
        "Tran",
        "scri"
      ],
      [
        "h",
        "ur"
      ],
      [
        "m",
        "iss"
      ],
      [
        "s",
        "its"
      ],
      [
        "se",
        "c"
      ],
      [
        "pre",
        "ss"
      ],
      [
        "A",
        "ny"
      ],
      [
        "D",
        "oes"
      ],
      [
        "a",
        "ut"
      ],
      [
        "b",
        "ag"
      ],
      [
        "e",
        "w"
      ],
      [
        "qu",
        "estion"
      ],
      [
        "read",
        "ing"
      ],
      [
        "ON",
        "E"
      ],
      [
        "O",
        "ne"
      ],
      [
        "P",
        "aul"
      ],
      [
        "U",
        "m"
      ],
      [
        "s",
        "ur"
      ],
      [
        "ta",
        "king"
      ],
      [
        "as",
        "on"
      ],
      [
        "sto",
        "ps"
      ],
      [
        "mmer",
        "cial"
      ],
      [
        "to",
        "morrow"
      ],
      [
        "proble",
        "m"
      ],
      [
        "K",
        "at"
      ],
      [
        "b",
        "b"
      ],
      [
        "c",
        "ha"
      ],
      [
        "c",
        "ool"
      ],
      [
        "what",
        "s"
      ],
      [
        "So",
        "me"
      ],
      [
        "dif",
        "fe"
      ],
      [
        "e",
        "yes"
      ],
      [
        "l",
        "ad"
      ],
      [
        "mo",
        "m"
      ],
      [
        "be",
        "aut"
      ],
      [
        "time",
        "s"
      ],
      [
        "f",
        "all"
      ],
      [
        "m",
        "ind"
      ],
      [
        "itt",
        "en"
      ],
      [
        "che",
        "s"
      ],
      [
        "D",
        "on"
      ],
      [
        "T",
        "ag"
      ],
      [
        "en",
        "ce"
      ],
      [
        "H",
        "o"
      ],
      [
        "n",
        "um"
      ],
      [
        "as",
        "h"
      ],
      [
        "What",
        "s"
      ],
      [
        "they",
        "re"
      ],
      [
        "stand",
        "ing"
      ],
      [
        "ow",
        "n"
      ],
      [
        "B",
        "ye"
      ],
      [
        "O",
        "pen"
      ],
      [
        "R",
        "E"
      ],
      [
        "do",
        "g"
      ],
      [
        "aren",
        "ts"
      ],
      [
        "ic",
        "ks"
      ],
      [
        "en",
        "ough"
      ],
      [
        "pic",
        "ks"
      ],
      [
        "W",
        "o"
      ],
      [
        "Rachel",
        "s"
      ],
      [
        "mo",
        "ther"
      ],
      [
        "b",
        "ring"
      ],
      [
        "m",
        "ust"
      ],
      [
        "than",
        "ks"
      ],
      [
        "ans",
        "wer"
      ],
      [
        "s",
        "ister"
      ],
      [
        "al",
        "so"
      ],
      [
        "pp",
        "ing"
      ],
      [
        "s",
        "en"
      ],
      [
        "ica",
        "lly"
      ],
      [
        "sa",
        "w"
      ],
      [
        "Gu",
        "y"
      ],
      [
        "le",
        "d"
      ],
      [
        "Sus",
        "an"
      ],
      [
        "A",
        "n"
      ],
      [
        "f",
        "ound"
      ],
      [
        "st",
        "er"
      ],
      [
        "Po",
        "in"
      ],
      [
        "Transcri",
        "bed"
      ],
      [
        "E",
        "N"
      ],
      [
        "W",
        "i"
      ],
      [
        "if",
        "ul"
      ],
      [
        "pan",
        "ts"
      ],
      [
        "vo",
        "ice"
      ],
      [
        "ur",
        "se"
      ],
      [
        "S",
        "orry"
      ],
      [
        "p",
        "ass"
      ],
      [
        "s",
        "l"
      ],
      [
        "ea",
        "d"
      ],
      [
        "every",
        "body"
      ],
      [
        "mat",
        "ter"
      ],
      [
        "O",
        "r"
      ],
      [
        "g",
        "as"
      ],
      [
        "i",
        "ther"
      ],
      [
        "p",
        "arents"
      ],
      [
        "beaut",
        "iful"
      ],
      [
        "B",
        "reak"
      ],
      [
        "ap",
        "e"
      ],
      [
        "s",
        "ent"
      ],
      [
        "B",
        "ar"
      ],
      [
        "p",
        "u"
      ],
      [
        "hi",
        "gh"
      ],
      [
        "any",
        "more"
      ],
      [
        "We",
        "re"
      ],
      [
        "under",
        "stand"
      ],
      [
        "B",
        "ing"
      ],
      [
        "ve",
        "s"
      ],
      [
        "su",
        "ch"
      ],
      [
        "qu",
        "ick"
      ],
      [
        "a",
        "w"
      ],
      [
        "ap",
        "er"
      ],
      [
        "mou",
        "th"
      ],
      [
        "M",
        "R"
      ],
      [
        "t",
        "t"
      ],
      [
        "Chandler",
        "s"
      ],
      [
        "we",
        "en"
      ],
      [
        "c",
        "ook"
      ],
      [
        "f",
        "ing"
      ],
      [
        "Joey",
        "s"
      ],
      [
        "hold",
        "ing"
      ],
      [
        "f",
        "am"
      ],
      [
        "k",
        "er"
      ],
      [
        "we",
        "ar"
      ],
      [
        "give",
        "s"
      ],
      [
        "fi",
        "gu"
      ],
      [
        "real",
        "iz"
      ],
      [
        "Jo",
        "sh"
      ],
      [
        "A",
        "my"
      ],
      [
        "m",
        "ine"
      ],
      [
        "se",
        "en"
      ],
      [
        "c",
        "or"
      ],
      [
        "f",
        "ood"
      ],
      [
        "n",
        "ter"
      ],
      [
        "in",
        "v"
      ],
      [
        "it",
        "ion"
      ],
      [
        "too",
        "k"
      ],
      [
        "I",
        "d"
      ],
      [
        "he",
        "ard"
      ],
      [
        "lu",
        "ck"
      ],
      [
        "P",
        "et"
      ],
      [
        "d",
        "ro"
      ],
      [
        "G",
        "reat"
      ],
      [
        "s",
        "ince"
      ],
      [
        "R",
        "I"
      ],
      [
        "T",
        "h"
      ],
      [
        "d",
        "ge"
      ],
      [
        "j",
        "e"
      ],
      [
        "ha",
        "lf"
      ],
      [
        "poin",
        "ts"
      ],
      [
        "Ex",
        "c"
      ],
      [
        "lo",
        "g"
      ],
      [
        "mo",
        "ving"
      ],
      [
        "ti",
        "e"
      ],
      [
        "kid",
        "s"
      ],
      [
        "go",
        "d"
      ],
      [
        "ig",
        "n"
      ],
      [
        "Poin",
        "ts"
      ],
      [
        "a",
        "a"
      ],
      [
        "m",
        "ach"
      ],
      [
        "re",
        "t"
      ],
      [
        "my",
        "self"
      ],
      [
        "wo",
        "men"
      ],
      [
        "fa",
        "ther"
      ],
      [
        "D",
        "ont"
      ],
      [
        "c",
        "ute"
      ],
      [
        "m",
        "ay"
      ],
      [
        "You",
        "r"
      ],
      [
        "ce",
        "pt"
      ],
      [
        "Co",
        "mmercial"
      ],
      [
        "wait",
        "ing"
      ],
      [
        "swe",
        "et"
      ],
      [
        "diffe",
        "rent"
      ],
      [
        "Wi",
        "th"
      ],
      [
        "a",
        "se"
      ],
      [
        "c",
        "er"
      ],
      [
        "f",
        "ive"
      ],
      [
        "k",
        "ill"
      ],
      [
        "p",
        "ay"
      ],
      [
        "g",
        "ang"
      ],
      [
        "tri",
        "es"
      ],
      [
        "wee",
        "k"
      ],
      [
        "he",
        "d"
      ],
      [
        "see",
        "ing"
      ],
      [
        "g",
        "ave"
      ],
      [
        "h",
        "or"
      ],
      [
        "k",
        "new"
      ],
      [
        "st",
        "e"
      ],
      [
        "Mon",
        "a"
      ],
      [
        "do",
        "ctor"
      ],
      [
        "ring",
        "s"
      ],
      [
        "girl",
        "s"
      ],
      [
        "sho",
        "cked"
      ],
      [
        "kis",
        "ses"
      ],
      [
        "g",
        "n"
      ],
      [
        "F",
        "or"
      ],
      [
        "G",
        "et"
      ],
      [
        "c",
        "king"
      ],
      [
        "am",
        "az"
      ],
      [
        "won",
        "der"
      ],
      [
        "W",
        "r"
      ],
      [
        "re",
        "l"
      ],
      [
        "out",
        "side"
      ],
      [
        "F",
        "ine"
      ],
      [
        "f",
        "lo"
      ],
      [
        "f",
        "our"
      ],
      [
        "t",
        "ou"
      ],
      [
        "mor",
        "ning"
      ],
      [
        "birth",
        "day"
      ],
      [
        "T",
        "ri"
      ],
      [
        "f",
        "ull"
      ],
      [
        "h",
        "u"
      ],
      [
        "laugh",
        "ing"
      ],
      [
        "A",
        "hh"
      ],
      [
        "s",
        "w"
      ],
      [
        "re",
        "et"
      ],
      [
        "hat",
        "e"
      ],
      [
        "Kat",
        "hy"
      ],
      [
        ")",
        "."
      ],
      [
        "D",
        "ire"
      ],
      [
        "H",
        "oney"
      ],
      [
        "oo",
        "t"
      ],
      [
        "wal",
        "king"
      ],
      [
        "feel",
        "ing"
      ],
      [
        "N",
        "ew"
      ],
      [
        "p",
        "ar"
      ],
      [
        "do",
        "ll"
      ],
      [
        "so",
        "l"
      ],
      [
        "mo",
        "vie"
      ],
      [
        "some",
        "body"
      ],
      [
        "who",
        "a"
      ],
      [
        "Open",
        "ing"
      ],
      [
        "I",
        "N"
      ],
      [
        "O",
        "f"
      ],
      [
        "y",
        "ell"
      ],
      [
        "ri",
        "ble"
      ],
      [
        "sing",
        "ing"
      ],
      [
        "A",
        "R"
      ],
      [
        "b",
        "or"
      ],
      [
        "f",
        "ast"
      ],
      [
        "is",
        "n"
      ],
      [
        "unt",
        "il"
      ],
      [
        "num",
        "ber"
      ],
      [
        "n",
        "ed"
      ],
      [
        "s",
        "me"
      ],
      [
        "v",
        "ent"
      ],
      [
        "clo",
        "se"
      ],
      [
        "bet",
        "ween"
      ],
      [
        "St",
        "arts"
      ],
      [
        "D",
        "an"
      ],
      [
        "re",
        "s"
      ],
      [
        "pp",
        "ed"
      ],
      [
        "Pet",
        "e"
      ],
      [
        "B",
        "ob"
      ],
      [
        "E",
        "li"
      ],
      [
        "n",
        "i"
      ],
      [
        "be",
        "th"
      ],
      [
        "we",
        "l"
      ],
      [
        "He",
        "s"
      ],
      [
        "ch",
        "ick"
      ],
      [
        "ce",
        "l"
      ],
      [
        "wor",
        "king"
      ],
      [
        "dd",
        "en"
      ],
      [
        "Josh",
        "u"
      ],
      [
        "c",
        "ry"
      ],
      [
        "l",
        "ap"
      ],
      [
        "ake",
        "s"
      ],
      [
        "turn",
        "ing"
      ],
      [
        "throw",
        "s"
      ],
      [
        "za",
        "beth"
      ],
      [
        "Wo",
        "man"
      ],
      [
        "Eli",
        "zabeth"
      ],
      [
        "in",
        "c"
      ],
      [
        "ll",
        "e"
      ],
      [
        "al",
        "one"
      ],
      [
        "g",
        "one"
      ],
      [
        "p",
        "ain"
      ],
      [
        "s",
        "mi"
      ],
      [
        "ica",
        "l"
      ],
      [
        "fe",
        "ct"
      ],
      [
        "jo",
        "ke"
      ],
      [
        "shi",
        "p"
      ],
      [
        "ward",
        "s"
      ],
      [
        "ic",
        "es"
      ],
      [
        "with",
        "out"
      ],
      [
        "p",
        "ie"
      ],
      [
        "Monica",
        "s"
      ],
      [
        "mean",
        "s"
      ],
      [
        "exc",
        "ited"
      ],
      [
        "W",
        "I"
      ],
      [
        "W",
        "ill"
      ],
      [
        "d",
        "ri"
      ],
      [
        "e",
        "e"
      ],
      [
        "Listen",
        "s"
      ],
      [
        "Joshu",
        "a"
      ],
      [
        "!",
        "\""
      ],
      [
        "p",
        "rom"
      ],
      [
        "le",
        "g"
      ],
      [
        "your",
        "self"
      ],
      [
        "air",
        "s"
      ],
      [
        "chi",
        "ld"
      ],
      [
        "Wr",
        "itten"
      ],
      [
        "B",
        "o"
      ],
      [
        "L",
        "ike"
      ],
      [
        "p",
        "or"
      ],
      [
        "r",
        "ist"
      ],
      [
        "think",
        "s"
      ],
      [
        "I",
        "E"
      ],
      [
        "l",
        "in"
      ],
      [
        "ser",
        "ious"
      ],
      [
        "aur",
        "ant"
      ],
      [
        "m",
        "as"
      ],
      [
        "p",
        "h"
      ],
      [
        "er",
        "a"
      ],
      [
        "st",
        "airs"
      ],
      [
        "sur",
        "pr"
      ],
      [
        "re",
        "ason"
      ],
      [
        "st",
        "r"
      ],
      [
        "bu",
        "y"
      ],
      [
        "kid",
        "ding"
      ],
      [
        "l",
        "ine"
      ],
      [
        "s",
        "mo"
      ],
      [
        "co",
        "at"
      ],
      [
        "She",
        "s"
      ],
      [
        "wor",
        "d"
      ],
      [
        "sc",
        "ream"
      ],
      [
        "There",
        "s"
      ],
      [
        "Exc",
        "use"
      ],
      [
        "amaz",
        "ing"
      ],
      [
        "b",
        "and"
      ],
      [
        "ou",
        "d"
      ],
      [
        "on",
        "ce"
      ],
      [
        "and",
        "y"
      ],
      [
        "wi",
        "fe"
      ],
      [
        "fi",
        "re"
      ],
      [
        "move",
        "s"
      ],
      [
        "WI",
        "TH"
      ],
      [
        "A",
        "c"
      ],
      [
        "flo",
        "or"
      ],
      [
        "A",
        "m"
      ],
      [
        "U",
        "r"
      ],
      [
        "r",
        "up"
      ],
      [
        "kno",
        "ck"
      ],
      [
        "hu",
        "ge"
      ],
      [
        "c",
        "am"
      ],
      [
        "e",
        "as"
      ],
      [
        "f",
        "act"
      ],
      [
        "t",
        "ain"
      ],
      [
        "in",
        "a"
      ],
      [
        "at",
        "es"
      ],
      [
        "al",
        "right"
      ],
      [
        "tr",
        "ue"
      ],
      [
        "Dire",
        "ctor"
      ],
      [
        "e",
        "ating"
      ],
      [
        "ho",
        "pe"
      ],
      [
        "one",
        "s"
      ],
      [
        "a",
        "go"
      ],
      [
        "c",
        "lass"
      ],
      [
        "d",
        "ance"
      ],
      [
        "s",
        "po"
      ],
      [
        "ut",
        "es"
      ],
      [
        "for",
        "get"
      ],
      [
        "ch",
        "ool"
      ],
      [
        "si",
        "x"
      ],
      [
        "C",
        "ause"
      ],
      [
        "c",
        "up"
      ],
      [
        "e",
        "ither"
      ],
      [
        "p",
        "a"
      ],
      [
        "g",
        "lass"
      ],
      [
        "w",
        "ont"
      ],
      [
        "are",
        "nt"
      ],
      [
        "hold",
        "s"
      ],
      [
        "per",
        "fect"
      ],
      [
        "t",
        "ape"
      ],
      [
        "it",
        "ing"
      ],
      [
        "oo",
        "h"
      ],
      [
        "con",
        "tin"
      ],
      [
        "cou",
        "nter"
      ],
      [
        "min",
        "utes"
      ],
      [
        "quick",
        "ly"
      ],
      [
        "in",
        "side"
      ],
      [
        "ro",
        "ll"
      ],
      [
        "pre",
        "gn"
      ],
      [
        "sound",
        "s"
      ],
      [
        "A",
        "s"
      ],
      [
        "d",
        "ition"
      ],
      [
        "r",
        "t"
      ],
      [
        "and",
        "s"
      ],
      [
        "lea",
        "ving"
      ],
      [
        "run",
        "ning"
      ],
      [
        "Ju",
        "lie"
      ],
      [
        "sme",
        "ll"
      ],
      [
        "k",
        "en"
      ],
      [
        "is",
        "ed"
      ],
      [
        "che",
        "e"
      ],
      [
        "Ur",
        "su"
      ],
      [
        "A",
        "as"
      ],
      [
        "G",
        "r"
      ],
      [
        "G",
        "ary"
      ],
      [
        "c",
        "ho"
      ],
      [
        "g",
        "en"
      ],
      [
        "on",
        "to"
      ],
      [
        "me",
        "d"
      ],
      [
        "au",
        "ght"
      ],
      [
        "any",
        "one"
      ],
      [
        "bab",
        "ies"
      ],
      [
        "Aas",
        "en"
      ],
      [
        "o",
        "s"
      ],
      [
        "is",
        "nt"
      ],
      [
        "mo",
        "ment"
      ],
      [
        "him",
        "self"
      ],
      [
        "wor",
        "ry"
      ],
      [
        "im",
        "port"
      ],
      [
        "C",
        "lo"
      ],
      [
        "s",
        "low"
      ],
      [
        "ll",
        "ow"
      ],
      [
        "import",
        "ant"
      ],
      [
        "J",
        "ill"
      ],
      [
        "O",
        "n"
      ],
      [
        "w",
        "ish"
      ],
      [
        "me",
        "t"
      ],
      [
        "clo",
        "ses"
      ],
      [
        "car",
        "rying"
      ],
      [
        "Mar",
        "k"
      ],
      [
        "H",
        "old"
      ],
      [
        "l",
        "ing"
      ],
      [
        "s",
        "ong"
      ],
      [
        "s",
        "ign"
      ],
      [
        "al",
        "most"
      ],
      [
        "il",
        "ing"
      ],
      [
        "sp",
        "ea"
      ],
      [
        "Mar",
        "cel"
      ],
      [
        "W",
        "ould"
      ],
      [
        "b",
        "ri"
      ],
      [
        "l",
        "t"
      ],
      [
        "th",
        "am"
      ],
      [
        "no",
        "ds"
      ],
      [
        "sto",
        "ry"
      ],
      [
        "start",
        "ed"
      ],
      [
        "Wal",
        "tham"
      ],
      [
        "c",
        "u"
      ],
      [
        "f",
        "ight"
      ],
      [
        "f",
        "ree"
      ],
      [
        "i",
        "ble"
      ],
      [
        "se",
        "at"
      ],
      [
        "know",
        "s"
      ],
      [
        "ad",
        "e"
      ],
      [
        "b",
        "us"
      ],
      [
        "c",
        "rying"
      ],
      [
        "in",
        "te"
      ],
      [
        "lo",
        "st"
      ],
      [
        "vie",
        "w"
      ],
      [
        "Jo",
        "an"
      ],
      [
        "lad",
        "y"
      ],
      [
        "Ursu",
        "la"
      ],
      [
        "O",
        "w"
      ],
      [
        "S",
        "h"
      ],
      [
        "p",
        "ack"
      ],
      [
        "cen",
        "t"
      ],
      [
        "ap",
        "pro"
      ],
      [
        "sp",
        "it"
      ],
      [
        "fin",
        "ally"
      ],
      [
        "mon",
        "th"
      ],
      [
        "inter",
        "rup"
      ],
      [
        "D",
        "ad"
      ],
      [
        "p",
        "aper"
      ],
      [
        "on",
        "don"
      ],
      [
        "the",
        "s"
      ],
      [
        "ke",
        "ts"
      ],
      [
        "wor",
        "ld"
      ],
      [
        "Jan",
        "ine"
      ],
      [
        "chan",
        "ce"
      ],
      [
        "hour",
        "s"
      ],
      [
        "bb",
        "ian"
      ],
      [
        "m",
        "ag"
      ],
      [
        "s",
        "chool"
      ],
      [
        "v",
        "or"
      ],
      [
        "to",
        "wards"
      ],
      [
        "id",
        "es"
      ],
      [
        "Ch",
        "rist"
      ],
      [
        "Tri",
        "bbian"
      ],
      [
        "dden",
        "ly"
      ],
      [
        "e",
        "le"
      ],
      [
        "p",
        "ing"
      ],
      [
        "ex",
        "t"
      ],
      [
        "cle",
        "an"
      ],
      [
        "AR",
        "D"
      ],
      [
        "I",
        "T"
      ],
      [
        "i",
        "o"
      ],
      [
        "st",
        "reet"
      ],
      [
        "Ross",
        "s"
      ],
      [
        "No",
        "thing"
      ],
      [
        "am",
        "n"
      ],
      [
        "Wh",
        "ich"
      ],
      [
        "rel",
        "ation"
      ],
      [
        "sol",
        "ute"
      ],
      [
        "L",
        "ondon"
      ],
      [
        "c",
        "ast"
      ],
      [
        "c",
        "tion"
      ],
      [
        "re",
        "w"
      ],
      [
        "L",
        "L"
      ],
      [
        "m",
        "ate"
      ],
      [
        "was",
        "nt"
      ],
      [
        "day",
        "s"
      ],
      [
        "inte",
        "rest"
      ],
      [
        "c",
        "ab"
      ],
      [
        "s",
        "hoe"
      ],
      [
        "or",
        "s"
      ],
      [
        "id",
        "ent"
      ],
      [
        "mach",
        "ine"
      ],
      [
        "contin",
        "u"
      ],
      [
        "pregn",
        "ant"
      ],
      [
        "Christ",
        "mas"
      ],
      [
        "n",
        "ie"
      ],
      [
        "w",
        "ater"
      ],
      [
        "at",
        "t"
      ],
      [
        "me",
        "ssage"
      ],
      [
        "ut",
        "s"
      ],
      [
        "gl",
        "ad"
      ],
      [
        "Tribbian",
        "i"
      ],
      [
        "S",
        "T"
      ],
      [
        "m",
        "is"
      ],
      [
        "for",
        "m"
      ],
      [
        "head",
        "s"
      ],
      [
        "RI",
        "CH"
      ],
      [
        "Ac",
        "tually"
      ],
      [
        "S",
        "te"
      ],
      [
        "d",
        "ead"
      ],
      [
        "na",
        "ked"
      ],
      [
        "com",
        "for"
      ],
      [
        "kiss",
        "ing"
      ],
      [
        "swe",
        "e"
      ],
      [
        "boy",
        "friend"
      ],
      [
        "Mo",
        "m"
      ],
      [
        "solute",
        "ly"
      ],
      [
        "RICH",
        "ARD"
      ],
      [
        "L",
        "ets"
      ],
      [
        "b",
        "oo"
      ],
      [
        "d",
        "anc"
      ],
      [
        "e",
        "ye"
      ],
      [
        "oo",
        "o"
      ],
      [
        "would",
        "n"
      ],
      [
        "would",
        "nt"
      ],
      [
        "ex",
        "act"
      ],
      [
        "clo",
        "thes"
      ],
      [
        "g",
        "ing"
      ],
      [
        "au",
        "dition"
      ],
      [
        "was",
        "n"
      ],
      [
        "con",
        "f"
      ],
      [
        "cou",
        "nt"
      ],
      [
        "ation",
        "s"
      ],
      [
        "Er",
        "ica"
      ],
      [
        "c",
        "li"
      ],
      [
        "l",
        "ar"
      ],
      [
        "s",
        "ick"
      ],
      [
        "v",
        "is"
      ],
      [
        "lea",
        "st"
      ],
      [
        "du",
        "ck"
      ],
      [
        "bro",
        "ke"
      ],
      [
        "i",
        "ld"
      ],
      [
        "m",
        "any"
      ],
      [
        "t",
        "ro"
      ],
      [
        "w",
        "a"
      ],
      [
        "w",
        "ers"
      ],
      [
        "ve",
        "d"
      ],
      [
        "fo",
        "llow"
      ],
      [
        "Thanks",
        "giving"
      ],
      [
        "tou",
        "ch"
      ],
      [
        "or",
        "k"
      ],
      [
        "rest",
        "aurant"
      ],
      [
        "Bar",
        "ry"
      ],
      [
        "D",
        "u"
      ],
      [
        "H",
        "ave"
      ],
      [
        "m",
        "id"
      ],
      [
        "any",
        "way"
      ],
      [
        "ug",
        "s"
      ],
      [
        "pull",
        "s"
      ],
      [
        "relation",
        "ship"
      ],
      [
        "f",
        "av"
      ],
      [
        "p",
        "ast"
      ],
      [
        "le",
        "ar"
      ],
      [
        "gh",
        "s"
      ],
      [
        "as",
        "ked"
      ],
      [
        "Uh",
        "h"
      ],
      [
        "Any",
        "way"
      ],
      [
        "J",
        "ack"
      ],
      [
        "b",
        "re"
      ],
      [
        "s",
        "al"
      ],
      [
        "ch",
        "ar"
      ],
      [
        "fin",
        "ish"
      ],
      [
        "B",
        "u"
      ],
      [
        "m",
        "p"
      ],
      [
        "s",
        "on"
      ],
      [
        "w",
        "all"
      ],
      [
        "ti",
        "ve"
      ],
      [
        "new",
        "s"
      ],
      [
        "Every",
        "one"
      ],
      [
        "b",
        "al"
      ],
      [
        "s",
        "cene"
      ],
      [
        "is",
        "es"
      ],
      [
        "ac",
        "es"
      ],
      [
        "al",
        "ong"
      ],
      [
        "tion",
        "s"
      ],
      [
        "shi",
        "rt"
      ],
      [
        "P",
        "ar"
      ],
      [
        "f",
        "li"
      ],
      [
        "h",
        "it"
      ],
      [
        "st",
        "ep"
      ],
      [
        "Oh",
        "hh"
      ],
      [
        "li",
        "er"
      ],
      [
        "fe",
        "w"
      ],
      [
        "Look",
        "s"
      ],
      [
        "?",
        "\""
      ],
      [
        "A",
        "t"
      ],
      [
        "s",
        "k"
      ],
      [
        "ou",
        "ble"
      ],
      [
        "are",
        "d"
      ],
      [
        "um",
        "ps"
      ],
      [
        "jo",
        "y"
      ],
      [
        "iz",
        "e"
      ],
      [
        "sm",
        "all"
      ],
      [
        "P",
        "l"
      ],
      [
        "S",
        "er"
      ],
      [
        "U",
        "gh"
      ],
      [
        "c",
        "y"
      ],
      [
        "but",
        "t"
      ],
      [
        "com",
        "p"
      ],
      [
        "gr",
        "and"
      ],
      [
        "c",
        "es"
      ],
      [
        "j",
        "u"
      ],
      [
        "co",
        "ver"
      ],
      [
        "again",
        "st"
      ],
      [
        "sha",
        "ke"
      ],
      [
        "hall",
        "way"
      ],
      [
        "fam",
        "ily"
      ],
      [
        "pie",
        "ce"
      ],
      [
        "A",
        "b"
      ],
      [
        "d",
        "ie"
      ],
      [
        "f",
        "oot"
      ],
      [
        "i",
        "et"
      ],
      [
        "ou",
        "n"
      ],
      [
        "you",
        "ve"
      ],
      [
        "so",
        "on"
      ],
      [
        "ly",
        "ing"
      ],
      [
        "uh",
        "m"
      ],
      [
        "bo",
        "ard"
      ],
      [
        "mar",
        "ry"
      ],
      [
        "ans",
        "wers"
      ],
      [
        "hug",
        "s"
      ],
      [
        "app",
        "y"
      ],
      [
        "hur",
        "t"
      ],
      [
        "T",
        "i"
      ],
      [
        "U",
        "n"
      ],
      [
        "b",
        "oss"
      ],
      [
        "s",
        "and"
      ],
      [
        "s",
        "li"
      ],
      [
        "ha",
        "vent"
      ],
      [
        "di",
        "vor"
      ],
      [
        "ear",
        "lier"
      ],
      [
        "eas",
        "y"
      ],
      [
        "D",
        "ay"
      ],
      [
        "R",
        "un"
      ],
      [
        "g",
        "in"
      ],
      [
        "g",
        "ar"
      ],
      [
        "r",
        "oss"
      ],
      [
        "on",
        "s"
      ],
      [
        "any",
        "body"
      ],
      [
        "pre",
        "sent"
      ],
      [
        "yell",
        "ing"
      ],
      [
        "g",
        "if"
      ],
      [
        "l",
        "oo"
      ],
      [
        "l",
        "unch"
      ],
      [
        "w",
        "ow"
      ],
      [
        "al",
        "s"
      ],
      [
        "co",
        "lle"
      ],
      [
        "gl",
        "ares"
      ],
      [
        "ob",
        "v"
      ],
      [
        "doll",
        "ars"
      ],
      [
        "S",
        "top"
      ],
      [
        "me",
        "ant"
      ],
      [
        "ac",
        "hes"
      ],
      [
        "ha",
        "ven"
      ],
      [
        "not",
        "ices"
      ],
      [
        "bu",
        "ild"
      ],
      [
        "iz",
        "za"
      ],
      [
        "bro",
        "ther"
      ],
      [
        "H",
        "mm"
      ],
      [
        "M",
        "N"
      ],
      [
        "P",
        "a"
      ],
      [
        "c",
        "us"
      ],
      [
        "m",
        "us"
      ],
      [
        "ac",
        "tor"
      ],
      [
        "ic",
        "king"
      ],
      [
        "st",
        "ri"
      ],
      [
        "up",
        "set"
      ],
      [
        "can",
        "not"
      ],
      [
        "!!",
        "!!"
      ],
      [
        "te",
        "st"
      ],
      [
        "stand",
        "s"
      ],
      [
        "d",
        "le"
      ],
      [
        "p",
        "ri"
      ],
      [
        "s",
        "ad"
      ],
      [
        "v",
        "ous"
      ],
      [
        "ac",
        "ross"
      ],
      [
        "st",
        "aring"
      ],
      [
        "as",
        "leep"
      ],
      [
        "am",
        "s"
      ],
      [
        "anc",
        "y"
      ],
      [
        "MN",
        "CA"
      ],
      [
        "H",
        "ands"
      ],
      [
        "K",
        "ate"
      ],
      [
        "c",
        "ed"
      ],
      [
        "j",
        "ump"
      ],
      [
        "pp",
        "er"
      ],
      [
        "pret",
        "end"
      ],
      [
        "tic",
        "kets"
      ],
      [
        "spit",
        "al"
      ],
      [
        "d",
        "ra"
      ],
      [
        "i",
        "a"
      ],
      [
        "m",
        "er"
      ],
      [
        "p",
        "tion"
      ],
      [
        "t",
        "ea"
      ],
      [
        "it",
        "ch"
      ],
      [
        "who",
        "s"
      ],
      [
        "ex",
        "cept"
      ],
      [
        "fin",
        "ite"
      ],
      [
        "sho",
        "t"
      ],
      [
        "em",
        "bar"
      ],
      [
        "gas",
        "ps"
      ],
      [
        "C",
        "ould"
      ],
      [
        "V",
        "er"
      ],
      [
        "t",
        "ur"
      ],
      [
        "is",
        "hed"
      ],
      [
        "girl",
        "friend"
      ],
      [
        "show",
        "er"
      ],
      [
        "Clo",
        "sing"
      ],
      [
        "G",
        "oes"
      ],
      [
        "G",
        "ive"
      ],
      [
        "G",
        "av"
      ],
      [
        "w",
        "his"
      ],
      [
        "z",
        "z"
      ],
      [
        "an",
        "k"
      ],
      [
        "ri",
        "age"
      ],
      [
        "sp",
        "end"
      ],
      [
        "ma",
        "ssage"
      ],
      [
        "cle",
        "ar"
      ],
      [
        "kno",
        "cks"
      ],
      [
        "plan",
        "e"
      ],
      [
        "figu",
        "re"
      ],
      [
        "L",
        "o"
      ],
      [
        "g",
        "age"
      ],
      [
        "s",
        "il"
      ],
      [
        "s",
        "qu"
      ],
      [
        "could",
        "n"
      ],
      [
        "Gav",
        "in"
      ],
      [
        "H",
        "appy"
      ],
      [
        "b",
        "rea"
      ],
      [
        "see",
        "ms"
      ],
      [
        "prom",
        "ise"
      ],
      [
        "exact",
        "ly"
      ],
      [
        "Du",
        "de"
      ],
      [
        "C",
        "he"
      ],
      [
        "R",
        "u"
      ],
      [
        "R",
        "oom"
      ],
      [
        "n",
        "g"
      ],
      [
        "at",
        "or"
      ],
      [
        "en",
        "ti"
      ],
      [
        "ri",
        "d"
      ],
      [
        "ro",
        "wn"
      ],
      [
        "cam",
        "era"
      ],
      [
        "sand",
        "w"
      ],
      [
        "D",
        "e"
      ],
      [
        "b",
        "ur"
      ],
      [
        "g",
        "ent"
      ],
      [
        "in",
        "st"
      ],
      [
        "Phoebe",
        "s"
      ],
      [
        "for",
        "got"
      ],
      [
        "your",
        "s"
      ],
      [
        "ex",
        "its"
      ],
      [
        "could",
        "nt"
      ],
      [
        "br",
        "ought"
      ],
      [
        "Joan",
        "na"
      ],
      [
        "Ti",
        "me"
      ],
      [
        "N",
        "ice"
      ],
      [
        "c",
        "ket"
      ],
      [
        "p",
        "i"
      ],
      [
        "to",
        "ry"
      ],
      [
        "st",
        "ra"
      ],
      [
        "ri",
        "es"
      ],
      [
        "tal",
        "ked"
      ],
      [
        "mar",
        "riage"
      ],
      [
        "fall",
        "s"
      ],
      [
        "swee",
        "tie"
      ],
      [
        "finite",
        "ly"
      ],
      [
        "d",
        "run"
      ],
      [
        "p",
        "oss"
      ],
      [
        "bo",
        "w"
      ],
      [
        "ine",
        "ss"
      ],
      [
        "ra",
        "ss"
      ],
      [
        "com",
        "ple"
      ],
      [
        "spe",
        "cial"
      ],
      [
        "me",
        "ss"
      ],
      [
        "ac",
        "her"
      ],
      [
        "ter",
        "rible"
      ],
      [
        "ake",
        "d"
      ],
      [
        "ce",
        "ss"
      ],
      [
        "pe",
        "e"
      ],
      [
        "ner",
        "vous"
      ],
      [
        "men",
        "ts"
      ],
      [
        "MR",
        "S"
      ],
      [
        "build",
        "ing"
      ],
      [
        "Y",
        "ork"
      ],
      [
        "f",
        "air"
      ],
      [
        "s",
        "y"
      ],
      [
        "w",
        "ine"
      ],
      [
        "he",
        "art"
      ],
      [
        "at",
        "s"
      ],
      [
        "ic",
        "ul"
      ],
      [
        "st",
        "ares"
      ],
      [
        "pl",
        "ate"
      ],
      [
        "po",
        "se"
      ],
      [
        "hang",
        "s"
      ],
      [
        "Lau",
        "ren"
      ],
      [
        "D",
        "ou"
      ],
      [
        "g",
        "ust"
      ],
      [
        "re",
        "turning"
      ],
      [
        "of",
        "ess"
      ],
      [
        "do",
        "in"
      ],
      [
        "lo",
        "se"
      ],
      [
        "ra",
        "id"
      ],
      [
        "fing",
        "er"
      ],
      [
        "embar",
        "rass"
      ],
      [
        "A",
        "ww"
      ],
      [
        "ge",
        "st"
      ],
      [
        "her",
        "self"
      ],
      [
        "what",
        "ever"
      ],
      [
        "un",
        "g"
      ],
      [
        "pl",
        "ain"
      ],
      [
        "sto",
        "re"
      ],
      [
        "mon",
        "key"
      ],
      [
        "slow",
        "ly"
      ],
      [
        "?",
        "!!"
      ],
      [
        "O",
        "ur"
      ],
      [
        "c",
        "ur"
      ],
      [
        "l",
        "and"
      ],
      [
        "st",
        "ick"
      ],
      [
        "IN",
        "G"
      ],
      [
        "Dan",
        "ny"
      ],
      [
        "interrup",
        "ting"
      ],
      [
        "comfor",
        "table"
      ],
      [
        "M",
        "a"
      ],
      [
        "b",
        "a"
      ],
      [
        "b",
        "ra"
      ],
      [
        "p",
        "y"
      ],
      [
        "po",
        "t"
      ],
      [
        "che",
        "d"
      ],
      [
        "lu",
        "e"
      ],
      [
        "sex",
        "y"
      ],
      [
        "dis",
        "gust"
      ],
      [
        "bre",
        "ast"
      ],
      [
        "b",
        "as"
      ],
      [
        "b",
        "la"
      ],
      [
        "h",
        "um"
      ],
      [
        "h",
        "mm"
      ],
      [
        "j",
        "am"
      ],
      [
        "l",
        "ist"
      ],
      [
        "o",
        "lo"
      ],
      [
        "an",
        "e"
      ],
      [
        "you",
        "ll"
      ],
      [
        "see",
        "m"
      ],
      [
        "put",
        "ting"
      ],
      [
        "di",
        "re"
      ],
      [
        "full",
        "y"
      ],
      [
        "smi",
        "les"
      ],
      [
        ")",
        ":"
      ],
      [
        "U",
        "S"
      ],
      [
        "p",
        "artment"
      ],
      [
        "s",
        "le"
      ],
      [
        "en",
        "joy"
      ],
      [
        "ar",
        "cast"
      ],
      [
        "am",
        "p"
      ],
      [
        "la",
        "x"
      ],
      [
        "su",
        "ddenly"
      ],
      [
        "stra",
        "ight"
      ],
      [
        "c",
        "al"
      ],
      [
        "c",
        "ake"
      ],
      [
        "c",
        "ig"
      ],
      [
        "c",
        "atch"
      ],
      [
        "l",
        "oud"
      ],
      [
        "m",
        "il"
      ],
      [
        "s",
        "n"
      ],
      [
        "re",
        "lax"
      ],
      [
        "be",
        "ll"
      ],
      [
        "ap",
        "o"
      ],
      [
        "should",
        "er"
      ],
      [
        "fav",
        "or"
      ],
      [
        "C",
        "hi"
      ],
      [
        "T",
        "wo"
      ],
      [
        "Y",
        "ep"
      ],
      [
        "f",
        "at"
      ],
      [
        "ou",
        "p"
      ],
      [
        "bo",
        "tt"
      ],
      [
        "us",
        "band"
      ],
      [
        "Dr",
        "ake"
      ],
      [
        "drun",
        "k"
      ],
      [
        "p",
        "ush"
      ],
      [
        "ne",
        "ss"
      ],
      [
        "ti",
        "ll"
      ],
      [
        "su",
        "b"
      ],
      [
        "They",
        "re"
      ],
      [
        "open",
        "ing"
      ],
      [
        "aul",
        "t"
      ],
      [
        "obv",
        "iously"
      ],
      [
        "comple",
        "te"
      ],
      [
        "E",
        "D"
      ],
      [
        "M",
        "iss"
      ],
      [
        "S",
        "r"
      ],
      [
        "c",
        "ase"
      ],
      [
        "d",
        "a"
      ],
      [
        "e",
        "v"
      ],
      [
        "f",
        "ake"
      ],
      [
        "f",
        "low"
      ],
      [
        "h",
        "usband"
      ],
      [
        "m",
        "ist"
      ],
      [
        "p",
        "izza"
      ],
      [
        "re",
        "ve"
      ],
      [
        "en",
        "n"
      ],
      [
        "se",
        "ven"
      ],
      [
        "like",
        "s"
      ],
      [
        "call",
        "ing"
      ],
      [
        "af",
        "raid"
      ],
      [
        "ct",
        "ed"
      ],
      [
        "sm",
        "iling"
      ],
      [
        "inc",
        "red"
      ],
      [
        "mag",
        "az"
      ],
      [
        "Ste",
        "ve"
      ],
      [
        "Pa",
        "olo"
      ],
      [
        "enti",
        "re"
      ],
      [
        "B",
        "U"
      ],
      [
        "B",
        "on"
      ],
      [
        "T",
        "ell"
      ],
      [
        "b",
        "low"
      ],
      [
        "f",
        "ault"
      ],
      [
        "p",
        "urse"
      ],
      [
        "r",
        "or"
      ],
      [
        "u",
        "al"
      ],
      [
        "He",
        "l"
      ],
      [
        "ant",
        "ic"
      ],
      [
        "EL",
        "LER"
      ],
      [
        "key",
        "s"
      ],
      [
        "wee",
        "ks"
      ],
      [
        "gif",
        "t"
      ],
      [
        "\"",
        "."
      ],
      [
        "G",
        "ELLER"
      ],
      [
        "P",
        "e"
      ],
      [
        "g",
        "g"
      ],
      [
        "h",
        "und"
      ],
      [
        "en",
        "gage"
      ],
      [
        "like",
        "d"
      ],
      [
        "wor",
        "ried"
      ],
      [
        "move",
        "d"
      ],
      [
        "Ex",
        "its"
      ],
      [
        "answer",
        "ing"
      ],
      [
        "sandw",
        "ich"
      ],
      [
        "hund",
        "red"
      ],
      [
        "1",
        "0"
      ],
      [
        "M",
        "ind"
      ],
      [
        "f",
        "ish"
      ],
      [
        "h",
        "oo"
      ],
      [
        "s",
        "arcast"
      ],
      [
        "ing",
        "s"
      ],
      [
        "ri",
        "ly"
      ],
      [
        "ho",
        "spital"
      ],
      [
        "ell",
        "e"
      ],
      [
        "ir",
        "ty"
      ],
      [
        "end",
        "s"
      ],
      [
        "sh",
        "ut"
      ],
      [
        "wor",
        "ds"
      ],
      [
        "ate",
        "ly"
      ],
      [
        "hh",
        "hh"
      ],
      [
        "tr",
        "u"
      ],
      [
        "chick",
        "en"
      ],
      [
        "danc",
        "ing"
      ],
      [
        "conf",
        "used"
      ],
      [
        "Run",
        "s"
      ],
      [
        "D",
        "amn"
      ],
      [
        "G",
        "ets"
      ],
      [
        "T",
        "ake"
      ],
      [
        "c",
        "ell"
      ],
      [
        "f",
        "ell"
      ],
      [
        "j",
        "umps"
      ],
      [
        "ab",
        "s"
      ],
      [
        "ap",
        "point"
      ],
      [
        "room",
        "mate"
      ],
      [
        "reat",
        "h"
      ],
      [
        "il",
        "s"
      ],
      [
        "figu",
        "red"
      ],
      [
        "mus",
        "ic"
      ],
      [
        "E",
        "n"
      ],
      [
        "L",
        "i"
      ],
      [
        "c",
        "l"
      ],
      [
        "d",
        "ating"
      ],
      [
        "d",
        "ream"
      ],
      [
        "v",
        "ide"
      ],
      [
        "in",
        "es"
      ],
      [
        "re",
        "turns"
      ],
      [
        "qu",
        "iet"
      ],
      [
        "im",
        "ag"
      ],
      [
        "jo",
        "in"
      ],
      [
        "start",
        "ing"
      ],
      [
        "light",
        "s"
      ],
      [
        "des",
        "k"
      ],
      [
        "fing",
        "ers"
      ],
      [
        "A",
        "f"
      ],
      [
        "N",
        "oo"
      ],
      [
        "R",
        "al"
      ],
      [
        "b",
        "ers"
      ],
      [
        "b",
        "ast"
      ],
      [
        "b",
        "ird"
      ],
      [
        "b",
        "reath"
      ],
      [
        "d",
        "dy"
      ],
      [
        "f",
        "re"
      ],
      [
        "f",
        "ill"
      ],
      [
        "r",
        "ain"
      ],
      [
        "or",
        "der"
      ],
      [
        "as",
        "king"
      ],
      [
        "not",
        "e"
      ],
      [
        "fe",
        "et"
      ],
      [
        "ill",
        "y"
      ],
      [
        "la",
        "w"
      ],
      [
        "fri",
        "dge"
      ],
      [
        "Do",
        "ctor"
      ],
      [
        "wr",
        "iting"
      ],
      [
        "show",
        "s"
      ],
      [
        "wel",
        "come"
      ],
      [
        "lap",
        "se"
      ],
      [
        "surpr",
        "ise"
      ],
      [
        "continu",
        "ed"
      ],
      [
        "mid",
        "dle"
      ],
      [
        "colle",
        "ge"
      ],
      [
        "Ral",
        "ph"
      ],
      [
        "H",
        "a"
      ],
      [
        "K",
        "E"
      ],
      [
        "b",
        "ought"
      ],
      [
        "g",
        "ay"
      ],
      [
        "k",
        "in"
      ],
      [
        "r",
        "at"
      ],
      [
        "v",
        "ice"
      ],
      [
        "he",
        "ars"
      ],
      [
        "ion",
        "s"
      ],
      [
        "ist",
        "ant"
      ],
      [
        "de",
        "finitely"
      ],
      [
        "ck",
        "les"
      ],
      [
        "Re",
        "member"
      ],
      [
        "In",
        "ter"
      ],
      [
        "bl",
        "ack"
      ],
      [
        "EN",
        "D"
      ],
      [
        "month",
        "s"
      ],
      [
        "Mind",
        "y"
      ],
      [
        "Af",
        "ter"
      ],
      [
        "A",
        "T"
      ],
      [
        "O",
        "ut"
      ],
      [
        "T",
        "ree"
      ],
      [
        "W",
        "H"
      ],
      [
        "f",
        "ar"
      ],
      [
        "i",
        "al"
      ],
      [
        "t",
        "w"
      ],
      [
        "t",
        "ed"
      ],
      [
        "t",
        "ried"
      ],
      [
        "w",
        "he"
      ],
      [
        "st",
        "un"
      ],
      [
        "lo",
        "ck"
      ],
      [
        "co",
        "mm"
      ],
      [
        "wor",
        "se"
      ],
      [
        "sc",
        "ared"
      ],
      [
        "gr",
        "ound"
      ],
      [
        "bu",
        "cks"
      ],
      [
        "exc",
        "use"
      ],
      [
        "inter",
        "view"
      ],
      [
        "hang",
        "ing"
      ],
      [
        "sleep",
        "ing"
      ],
      [
        "arent",
        "ly"
      ],
      [
        "cig",
        "are"
      ],
      [
        "ED",
        "D"
      ],
      [
        "'",
        "."
      ],
      [
        ")",
        ","
      ],
      [
        "3",
        "0"
      ],
      [
        "W",
        "as"
      ],
      [
        "b",
        "ill"
      ],
      [
        "c",
        "andy"
      ],
      [
        "e",
        "f"
      ],
      [
        "f",
        "reak"
      ],
      [
        "s",
        "of"
      ],
      [
        "he",
        "llo"
      ],
      [
        "re",
        "ce"
      ],
      [
        "ac",
        "ting"
      ],
      [
        "st",
        "ar"
      ],
      [
        "no",
        "se"
      ],
      [
        "ter",
        "s"
      ],
      [
        "bo",
        "t"
      ],
      [
        "Al",
        "ice"
      ],
      [
        "swe",
        "ater"
      ],
      [
        "ren",
        "ce"
      ],
      [
        "dress",
        "ed"
      ],
      [
        "Wal",
        "ks"
      ],
      [
        "press",
        "ed"
      ],
      [
        "mis",
        "sed"
      ],
      [
        "loo",
        "ked"
      ],
      [
        "G",
        "irl"
      ],
      [
        "M",
        "ic"
      ],
      [
        "R",
        "ea"
      ],
      [
        "b",
        "unch"
      ],
      [
        "you",
        "d"
      ],
      [
        "ic",
        "s"
      ],
      [
        "co",
        "ld"
      ],
      [
        "ap",
        "s"
      ],
      [
        "qu",
        "it"
      ],
      [
        "To",
        "m"
      ],
      [
        "stu",
        "ck"
      ],
      [
        "clo",
        "ck"
      ],
      [
        "sm",
        "art"
      ],
      [
        "ash",
        "back"
      ],
      [
        "realiz",
        "es"
      ],
      [
        "feeling",
        "s"
      ],
      [
        "smi",
        "le"
      ],
      [
        "mil",
        "k"
      ],
      [
        "A",
        "r"
      ],
      [
        "A",
        "unt"
      ],
      [
        "K",
        "im"
      ],
      [
        "N",
        "O"
      ],
      [
        "S",
        "u"
      ],
      [
        "i",
        "b"
      ],
      [
        "me",
        "s"
      ],
      [
        "ar",
        "ri"
      ],
      [
        "pre",
        "ci"
      ],
      [
        "sc",
        "reen"
      ],
      [
        "ru",
        "in"
      ],
      [
        "Lau",
        "ghs"
      ],
      [
        "glass",
        "es"
      ],
      [
        "shoe",
        "s"
      ],
      [
        "tur",
        "key"
      ],
      [
        "-",
        "-"
      ],
      [
        "H",
        "ang"
      ],
      [
        "T",
        "im"
      ],
      [
        "g",
        "y"
      ],
      [
        "g",
        "row"
      ],
      [
        "h",
        "its"
      ],
      [
        "m",
        "ing"
      ],
      [
        "p",
        "ill"
      ],
      [
        "li",
        "a"
      ],
      [
        "ho",
        "le"
      ],
      [
        "gu",
        "e"
      ],
      [
        "us",
        "ing"
      ],
      [
        "love",
        "s"
      ],
      [
        "ber",
        "t"
      ],
      [
        "ma",
        "id"
      ],
      [
        "pic",
        "ked"
      ],
      [
        "card",
        "s"
      ],
      [
        "wonder",
        "ing"
      ],
      [
        "Tree",
        "ger"
      ],
      [
        "M",
        "el"
      ],
      [
        "O",
        "ff"
      ],
      [
        "an",
        "n"
      ],
      [
        "oo",
        "f"
      ],
      [
        "wor",
        "ked"
      ],
      [
        "sp",
        "on"
      ],
      [
        "di",
        "ed"
      ],
      [
        "smo",
        "ke"
      ],
      [
        "Dou",
        "g"
      ],
      [
        "B",
        "ig"
      ],
      [
        "G",
[...]
